<pad>	0
<unk>	0
<s>	0
</s>	0
<sos>	0
<eos>	0
▁a	-2.52112
.	-2.70026
▁A	-3.17151
▁in	-3.29315
▁the	-3.66895
▁on	-3.88381
▁and	-3.92677
▁is	-3.99955
▁man	-4.02132
▁of	-4.05665
▁with	-4.12829
,	-4.48135
s	-4.56373
▁woman	-4.66438
▁are	-4.71028
▁to	-4.83378
▁Two	-4.87447
▁at	-4.93531
▁wearing	-4.9639
ing	-4.98209
▁people	-5.07425
▁shirt	-5.13646
▁white	-5.14498
▁black	-5.21723
▁young	-5.24039
▁while	-5.25617
▁his	-5.27605
▁blue	-5.28705
▁an	-5.31784
▁	-5.33329
▁red	-5.39282
▁sitting	-5.45223
▁girl	-5.49681
▁standing	-5.51757
▁boy	-5.51779
▁dog	-5.53092
▁men	-5.53991
▁playing	-5.56324
-	-5.58483
▁street	-5.63566
e	-5.66824
▁down	-5.67927
▁group	-5.68616
▁front	-5.68885
▁her	-5.70406
▁walking	-5.72355
▁holding	-5.77861
▁water	-5.92314
▁by	-5.96573
▁The	-5.99398
▁one	-6.0461
▁green	-6.06948
▁up	-6.07469
ed	-6.07775
▁looking	-6.10061
▁for	-6.11548
▁An	-6.12069
▁child	-6.13036
▁women	-6.13057
▁outside	-6.1716
▁large	-6.17856
▁Thre	-6.18582
▁yellow	-6.19784
▁brown	-6.22136
▁two	-6.23406
▁through	-6.26325
▁little	-6.26516
▁person	-6.29455
▁hat	-6.29758
▁from	-6.31798
▁their	-6.32213
▁other	-6.3226
▁ball	-6.34567
▁over	-6.37502
▁children	-6.38313
▁next	-6.39915
▁into	-6.41621
▁small	-6.43943
▁out	-6.46056
▁dressed	-6.47535
▁building	-6.49684
▁People	-6.49831
▁jacket	-6.50254
▁another	-6.51263
▁running	-6.51631
▁riding	-6.52653
▁as	-6.55153
▁Man	-6.56164
▁around	-6.57163
▁orange	-6.57982
▁some	-6.58671
▁field	-6.61455
▁near	-6.61915
▁be	-6.6251
▁crowd	-6.64426
▁background	-6.65466
▁stands	-6.65788
▁pink	-6.6582
▁beach	-6.66067
▁behind	-6.67068
▁sidewalk	-6.68224
▁table	-6.70736
▁jumping	-6.73563
▁snow	-6.7385
▁sits	-6.76104
▁grass	-6.76912
y	-6.77281
▁that	-6.79435
'	-6.7964
▁bike	-6.79678
▁top	-6.82078
▁looks	-6.82274
▁camera	-6.83656
▁stand	-6.84989
▁air	-6.85792
▁girls	-6.86816
▁wall	-6.87085
▁player	-6.87752
▁off	-6.89648
▁hair	-6.90279
▁city	-6.90779
▁has	-6.9314
▁dogs	-6.93222
▁working	-6.93232
▁dress	-6.93289
▁gray	-6.93497
d	-6.9581
▁something	-6.96587
▁hand	-6.96972
▁older	-6.97688
▁talking	-6.97999
▁it	-6.98291
▁soccer	-6.99424
▁park	-7.00431
▁shorts	-7.00974
▁him	-7.01126
▁blond	-7.01379
▁guitar	-7.01607
▁pants	-7.02666
▁picture	-7.02926
▁walks	-7.04385
▁play	-7.06416
▁Asian	-7.06455
▁jeans	-7.06931
▁lady	-7.07749
▁smiling	-7.07803
▁plays	-7.08532
▁along	-7.09831
▁dark	-7.10877
▁car	-7.1114
▁game	-7.12029
▁them	-7.14143
▁food	-7.14339
▁carrying	-7.14362
▁boys	-7.14393
▁together	-7.14728
▁road	-7.14782
▁head	-7.163
▁bench	-7.16447
▁holds	-7.16515
▁walk	-7.16757
▁side	-7.17683
▁Four	-7.18619
▁long	-7.19165
▁face	-7.19952
▁sit	-7.21836
▁glasses	-7.22739
al	-7.22751
▁stage	-7.22924
▁back	-7.24676
▁baby	-7.25267
▁t	-7.2535
▁tree	-7.27359
▁bicycle	-7.27581
▁Seve	-7.28798
▁hands	-7.29533
▁rock	-7.29588
▁taking	-7.2987
▁doing	-7.31457
▁pool	-7.31496
▁old	-7.31867
▁watching	-7.31885
▁who	-7.32745
▁each	-7.34134
ral	-7.34198
▁area	-7.34645
▁ground	-7.35051
▁he	-7.35931
▁couple	-7.36009
▁baseball	-7.3763
▁boat	-7.38058
▁dirt	-7.38171
shirt	-7.38696
▁male	-7.3872
▁look	-7.39747
▁race	-7.40646
▁suit	-7.41719
▁day	-7.42107
▁performing	-7.42429
▁striped	-7.42569
▁coat	-7.42971
▁mouth	-7.43044
▁female	-7.43745
▁guy	-7.43745
▁middle	-7.44008
▁room	-7.44094
▁across	-7.45413
▁jumps	-7.45868
▁purple	-7.46201
▁uniform	-7.48547
▁Young	-7.49013
▁sign	-7.49078
▁sunglasses	-7.49176
▁under	-7.49351
▁eating	-7.49703
▁horse	-7.51452
▁d	-7.51927
▁sand	-7.53824
▁football	-7.54167
▁band	-7.54228
▁There	-7.54233
▁microphone	-7.55235
▁using	-7.55694
▁helmet	-7.56766
▁runs	-7.56865
▁reading	-7.5704
haired	-7.57593
▁three	-7.57965
▁watch	-7.58351
▁or	-7.59041
▁tennis	-7.59481
▁On	-7.60362
▁store	-7.61281
▁floor	-7.61402
er	-7.61909
▁mountain	-7.62774
▁construction	-7.62885
▁its	-7.63176
▁watches	-7.63763
▁players	-7.63798
▁work	-7.63843
▁train	-7.65066
▁cap	-7.65303
▁toy	-7.65549
uring	-7.65834
▁all	-7.65943
▁window	-7.65951
▁Woman	-7.66313
▁chair	-7.66738
▁wooden	-7.66805
▁against	-7.67405
▁rides	-7.68212
▁about	-7.6827
▁basketball	-7.68764
▁line	-7.69589
▁dancing	-7.70064
▁bag	-7.70203
▁ocean	-7.70264
▁try	-7.70573
▁clothing	-7.70588
▁team	-7.71776
▁waiting	-7.72709
▁past	-7.7319
▁busy	-7.73523
▁gett	-7.73992
▁having	-7.74272
▁restaurant	-7.74693
▁climbing	-7.74942
▁elderly	-7.7554
▁outdoor	-7.76106
▁kids	-7.76569
▁trees	-7.76906
▁workers	-7.76924
ly	-7.77342
▁colorful	-7.77753
▁swimming	-7.77795
▁making	-7.78777
▁light	-7.80837
▁posing	-7.81109
▁inside	-7.81304
▁singing	-7.82084
▁covered	-7.82794
▁tan	-7.83187
▁fence	-7.83738
▁"	-7.85542
▁stick	-7.85689
▁brick	-7.862
▁market	-7.87125
▁skateboard	-7.8737
▁ice	-7.87372
▁she	-7.88154
▁they	-7.88332
▁high	-7.89374
▁surround	-7.89583
▁ride	-7.90211
▁very	-7.90521
▁sweater	-7.90717
▁big	-7.91387
▁shirts	-7.92981
▁cart	-7.93175
▁catch	-7.93625
▁beside	-7.93931
▁open	-7.94123
▁hill	-7.94399
▁towards	-7.9478
▁cellphone	-7.94796
▁lake	-7.94936
▁hats	-7.95172
▁truck	-7.96111
▁bright	-7.96322
▁kitchen	-7.96495
t	-7.96562
▁motorcycle	-7.96904
▁book	-7.97184
▁jump	-7.97868
▁path	-7.98077
▁This	-7.98079
"	-7.98457
to	-7.98508
▁track	-7.98647
▁laying	-7.98728
▁body	-7.99162
▁vest	-7.99334
n	-7.99905
▁Men	-8.00098
▁umbrella	-8.00558
▁grassy	-8.00625
▁clothes	-8.01055
▁outdoors	-8.01283
▁river	-8.01462
▁arms	-8.0168
▁tank	-8.02024
▁piece	-8.02671
▁bus	-8.02766
▁outfit	-8.04494
▁get	-8.05349
▁lot	-8.06151
▁colored	-8.06656
▁swing	-8.07458
▁hard	-8.07564
▁others	-8.0768
▁sever	-8.08151
▁night	-8.08297
▁shopping	-8.08744
▁painting	-8.09664
▁above	-8.10383
▁event	-8.10385
▁enjoying	-8.10753
▁stone	-8.10872
▁worker	-8.1155
▁paper	-8.11929
▁uniforms	-8.12017
▁metal	-8.1282
▁run	-8.13033
▁ready	-8.13457
▁snowy	-8.13746
▁Five	-8.13751
▁drinking	-8.14134
▁trick	-8.14277
▁hanging	-8.14315
▁full	-8.14414
▁arm	-8.14808
▁like	-8.14946
▁sleeping	-8.16007
▁music	-8.1602
▁right	-8.16913
▁house	-8.17675
▁Children	-8.18205
▁backpack	-8.18407
▁away	-8.18919
▁many	-8.19031
▁phone	-8.1929
▁set	-8.19312
▁toddler	-8.1963
▁gathered	-8.19802
▁guys	-8.20243
▁shoes	-8.20261
▁shop	-8.20297
▁takes	-8.20637
▁bar	-8.20887
▁2	-8.20961
▁board	-8.20992
▁bridge	-8.21346
▁going	-8.21691
▁dance	-8.21975
es	-8.22316
▁pole	-8.22347
▁costume	-8.22684
▁wave	-8.23044
w	-8.23337
▁adults	-8.23723
▁both	-8.23726
▁rope	-8.23792
▁short	-8.24247
▁photo	-8.2459
▁smiles	-8.2491
▁after	-8.25272
▁what	-8.25482
▁fire	-8.25877
▁pose	-8.26087
▁leaning	-8.26245
▁left	-8.26692
▁skirt	-8.26723
▁attempt	-8.2687
▁gear	-8.2687
▁steps	-8.26882
hair	-8.27073
▁crowded	-8.27157
▁flowers	-8.27504
▁preparing	-8.27761
▁L	-8.28439
▁family	-8.29204
▁sunny	-8.29933
▁rocks	-8.30114
▁kid	-8.30207
▁subway	-8.303
▁have	-8.303
▁which	-8.30483
▁African	-8.30484
a	-8.30583
▁four	-8.30844
▁hockey	-8.31222
▁fishing	-8.31397
▁racing	-8.3234
ween	-8.32341
▁bet	-8.32715
▁flag	-8.33
▁cowboy	-8.33375
▁fountain	-8.33946
▁machine	-8.34722
▁wood	-8.35696
▁public	-8.36356
▁setting	-8.36751
▁corner	-8.36758
▁glass	-8.36921
▁laughing	-8.37095
▁forest	-8.37368
▁drink	-8.3779
▁instruments	-8.38183
▁chairs	-8.38257
▁volleyball	-8.38526
▁plaid	-8.38526
▁graffiti	-8.38726
▁shirtless	-8.39587
▁Some	-8.40334
▁appears	-8.40681
▁stairs	-8.40809
▁selling	-8.41094
▁prepare	-8.41261
▁plastic	-8.41975
▁number	-8.42149
▁match	-8.42158
▁concrete	-8.42388
▁adult	-8.42598
▁someone	-8.42612
▁view	-8.42696
▁couch	-8.42981
▁American	-8.43505
▁tall	-8.43589
▁sweatshirt	-8.44068
▁seated	-8.45433
▁scarf	-8.45761
▁computer	-8.46665
▁ramp	-8.47056
▁bags	-8.47116
▁beard	-8.47293
▁take	-8.47296
▁midair	-8.47491
▁cooking	-8.47644
▁putting	-8.47741
▁object	-8.48206
▁edge	-8.48367
▁sun	-8.484
▁equipment	-8.48587
▁toward	-8.48878
r	-8.48883
▁woods	-8.49106
▁asian	-8.493
▁sky	-8.49471
▁beautiful	-8.49651
▁slide	-8.50251
▁bed	-8.50818
▁boots	-8.50867
st	-8.50918
▁display	-8.51816
▁pushing	-8.51904
▁wear	-8.51978
▁does	-8.52651
▁nearby	-8.53342
▁there	-8.53672
▁distance	-8.53794
▁mountains	-8.5381
▁throwing	-8.54192
▁fish	-8.54241
▁trail	-8.54867
▁jersey	-8.55098
▁just	-8.55432
▁where	-8.55905
▁audience	-8.5638
▁cross	-8.564
ittle	-8.56856
▁door	-8.57278
▁police	-8.57326
▁rider	-8.57547
▁party	-8.57879
▁eyes	-8.57885
▁instrument	-8.57996
▁performs	-8.58239
▁crossing	-8.58276
▁ladies	-8.58305
▁playground	-8.58309
▁pulling	-8.58495
▁poses	-8.58521
▁vehicle	-8.58729
▁pictures	-8.58734
▁Women	-8.58793
▁winter	-8.58793
▁fe	-8.5939
▁cigarette	-8.60715
▁lawn	-8.61266
▁bikes	-8.61616
▁parade	-8.61767
▁leaves	-8.618
▁statue	-8.62519
▁driving	-8.62778
▁smoking	-8.62792
▁cleaning	-8.63259
▁painted	-8.63756
▁net	-8.6378
aged	-8.63831
▁filled	-8.63909
▁Frisbee	-8.64315
▁works	-8.64563
lying	-8.64732
▁station	-8.64832
giving	-8.65093
▁buildings	-8.6516
▁roof	-8.65349
▁yard	-8.65352
▁cutting	-8.65354
▁structure	-8.65613
▁beer	-8.6599
▁apron	-8.66412
▁skateboarder	-8.66511
▁cream	-8.66665
▁rocky	-8.66852
▁safety	-8.67194
▁horses	-8.67568
▁Group	-8.68531
▁smile	-8.68573
▁gloves	-8.69269
▁art	-8.69428
▁bottle	-8.6994
▁makes	-8.69966
▁concert	-8.7016
▁no	-8.70228
▁hit	-8.70263
▁friends	-8.70721
▁fruit	-8.7077
▁gentleman	-8.70984
▁school	-8.7127
▁lean	-8.71684
▁perform	-8.71735
▁court	-8.72093
▁shoulder	-8.72176
▁enjoy	-8.72245
▁cup	-8.72739
▁reads	-8.72942
▁martial	-8.73215
▁home	-8.73485
▁dock	-8.73549
▁showing	-8.73846
▁newspaper	-8.73874
▁shore	-8.74063
▁carrie	-8.74123
▁hold	-8.74198
▁box	-8.74752
▁rain	-8.74925
▁drums	-8.75038
▁sort	-8.75304
▁among	-8.75498
▁S	-8.76016
▁mother	-8.76077
▁cars	-8.76238
▁flower	-8.7627
▁Girl	-8.7679
▁pile	-8.77077
▁T	-8.77096
▁fix	-8.77243
▁bowling	-8.77245
▁wet	-8.77252
▁parked	-8.77418
▁rodeo	-8.77539
▁pointing	-8.77713
an	-8.77746
▁bunch	-8.77837
▁goggles	-8.77848
▁overlook	-8.77889
▁drinks	-8.78496
▁mask	-8.78575
▁practicing	-8.78724
▁counter	-8.79023
▁costumes	-8.79348
▁bull	-8.79615
▁suits	-8.79824
▁listening	-8.8007
▁arts	-8.80171
▁Someone	-8.80533
▁facing	-8.80833
▁make	-8.80893
▁tent	-8.81035
▁talks	-8.81176
▁dresses	-8.81334
▁vests	-8.81348
▁cliff	-8.81443
▁sports	-8.81913
▁ladder	-8.81929
▁vendor	-8.8194
▁bathing	-8.81962
▁show	-8.82015
▁grill	-8.82169
▁different	-8.82367
▁feet	-8.8237
▁teams	-8.82405
▁flying	-8.82577
▁paint	-8.82607
▁time	-8.82712
▁snowboarder	-8.82721
▁scene	-8.82756
▁electric	-8.83296
▁tie	-8.83525
▁gather	-8.8353
▁gold	-8.83598
▁onlookers	-8.83675
▁bird	-8.83827
▁Old	-8.84239
▁bucket	-8.84461
▁jackets	-8.84887
▁desk	-8.85091
▁biker	-8.85264
▁kick	-8.85384
▁wedding	-8.85507
▁speaking	-8.85648
▁staring	-8.86006
▁railing	-8.86011
▁can	-8.8608
▁coffee	-8.86146
▁empty	-8.86468
▁surfer	-8.8673
▁before	-8.86791
▁swinging	-8.87017
▁leather	-8.87765
▁parking	-8.87995
▁blanket	-8.8803
▁stop	-8.8808
▁conversation	-8.88419
▁Boy	-8.8904
▁surfboard	-8.89091
▁talk	-8.89341
▁basket	-8.89698
▁Person	-8.89742
▁younger	-8.89977
▁waves	-8.90099
▁kicking	-8.90127
▁flags	-8.9024
▁attire	-8.90311
▁purse	-8.90366
ers	-8.90566
▁go	-8.90576
▁swim	-8.90713
▁put	-8.90952
▁shot	-8.91082
▁break	-8.91423
▁items	-8.91759
▁foreground	-8.92099
▁skateboarding	-8.92352
▁In	-8.92533
▁reach	-8.92574
▁various	-8.92783
▁spectators	-8.92809
▁bowl	-8.93077
▁silver	-8.9347
▁cement	-8.93471
▁flip	-8.93636
le	-8.93716
▁legs	-8.93727
▁competition	-8.93817
▁same	-8.94164
▁life	-8.94173
▁meal	-8.94183
en	-8.94964
▁writing	-8.95394
▁business	-8.96261
▁lap	-8.96305
▁leaps	-8.96549
▁animal	-8.9666
▁place	-8.96665
▁this	-8.97345
▁Indian	-8.97709
▁way	-8.98163
▁lift	-8.98219
▁kneeling	-8.98481
▁musical	-8.9863
▁ski	-8.98791
▁rail	-8.98884
▁site	-8.99016
▁base	-8.99147
▁climbs	-8.9915
▁students	-8.99176
ic	-8.99183
▁stroller	-8.99592
▁lay	-8.99732
▁Six	-8.9989
▁balloon	-8.99968
▁alley	-9.00258
▁outfits	-9.00371
▁cake	-9.00642
▁screen	-9.01469
▁vegetables	-9.02451
▁sings	-9.02494
▁wait	-9.02517
▁leg	-9.02547
tries	-9.03094
▁chasing	-9.03261
▁bearded	-9.03294
o	-9.03524
▁bikini	-9.03746
▁bicycles	-9.03927
▁gathering	-9.04102
▁lit	-9.04144
▁says	-9.04158
▁skier	-9.04213
▁signs	-9.04298
▁kissing	-9.04403
▁pull	-9.04652
▁bride	-9.0484
▁platform	-9.05184
in	-9.05346
▁close	-9.0568
▁sunset	-9.05965
▁bald	-9.06058
▁fighting	-9.06094
▁military	-9.06357
▁walkway	-9.06373
▁blowing	-9.06593
▁surfing	-9.06702
▁violin	-9.06876
▁tables	-9.0744
▁helmets	-9.07449
▁throw	-9.0779
▁class	-9.07923
▁classroom	-9.07941
▁ledge	-9.07944
▁hot	-9.07952
▁balloons	-9.08266
▁foot	-9.08349
▁mirror	-9.08742
▁Construction	-9.09145
h	-9.0925
▁uses	-9.09275
▁laptop	-9.09321
▁diving	-9.0955
▁gym	-9.09559
▁collar	-9.09725
i	-9.09907
▁alone	-9.09957
▁son	-9.09985
▁pour	-9.10066
▁clear	-9.10088
▁scooter	-9.10142
▁check	-9.10304
▁fun	-9.1037
▁coming	-9.10427
p	-9.10454
▁sport	-9.10557
▁pass	-9.10788
▁hiking	-9.11186
▁sandy	-9.11327
▁B	-9.11337
▁wheel	-9.11407
▁resting	-9.11598
▁competing	-9.11599
▁bubbles	-9.1218
▁traffic	-9.12433
▁wooded	-9.12509
▁meat	-9.12625
▁course	-9.12849
▁Black	-9.1285
▁D	-9.13359
▁huge	-9.13374
▁desert	-9.13691
▁hang	-9.13817
▁float	-9.13922
▁officer	-9.13944
▁plate	-9.13989
▁shows	-9.14271
▁trunks	-9.14438
▁garden	-9.14698
or	-9.14738
▁artist	-9.14768
▁upside	-9.15094
▁town	-9.1517
▁opposing	-9.15397
▁well	-9.15399
▁headphones	-9.15413
▁helping	-9.15472
▁block	-9.15605
▁passing	-9.15687
▁brunette	-9.15828
▁goal	-9.15915
▁ring	-9.15972
▁cat	-9.16128
▁sandals	-9.16265
▁P	-9.16343
▁traditional	-9.16697
▁waving	-9.16734
▁faces	-9.17128
▁males	-9.17172
▁made	-9.172
m	-9.17323
f	-9.17468
▁father	-9.17571
▁urban	-9.17571
▁brightly	-9.17713
▁slid	-9.17841
▁stadium	-9.18454
▁swings	-9.1894
▁country	-9.18998
▁skiing	-9.19294
▁held	-9.19345
▁musicians	-9.19721
▁skating	-9.1981
▁seem	-9.20003
▁marathon	-9.20244
▁lights	-9.20355
▁Kids	-9.20488
▁karate	-9.20697
▁performance	-9.20701
▁drum	-9.20967
▁leash	-9.21121
▁church	-9.21151
▁doorway	-9.21156
nt	-9.21305
less	-9.21315
▁leaping	-9.21385
▁waits	-9.2149
▁give	-9.21575
▁teenage	-9.21582
up	-9.21599
▁bat	-9.21853
▁hole	-9.21977
▁stuff	-9.22067
▁shovel	-9.22178
▁clown	-9.22403
▁video	-9.22527
▁cafe	-9.22537
▁stream	-9.22976
▁golf	-9.2321
▁seen	-9.23488
▁type	-9.2385
▁Christmas	-9.23923
▁neck	-9.23952
▁five	-9.23987
▁photographer	-9.24332
▁C	-9.24346
▁shallow	-9.24392
▁turn	-9.24801
▁telescope	-9.24864
▁digging	-9.24865
▁tracks	-9.25215
▁office	-9.25311
▁eat	-9.25518
b	-9.26062
▁circle	-9.26349
▁deck	-9.26495
▁do	-9.26495
▁sculpture	-9.26678
▁pier	-9.26743
▁tattoo	-9.26951
▁dirty	-9.27047
▁brush	-9.27714
▁straw	-9.27742
▁row	-9.27869
▁shoulders	-9.28092
▁microscope	-9.2865
▁below	-9.28734
▁attached	-9.28755
▁mud	-9.28759
▁sled	-9.29164
▁accordion	-9.29212
▁sticks	-9.29615
▁asleep	-9.29707
▁multicolored	-9.29725
▁seat	-9.29806
▁hugging	-9.30235
▁photograph	-9.30559
▁nose	-9.30658
▁third	-9.30708
▁makeup	-9.30721
▁performer	-9.30756
▁coats	-9.30958
▁throws	-9.31008
▁lab	-9.31188
▁moving	-9.31207
▁beige	-9.31207
▁members	-9.31324
▁see	-9.31569
▁runner	-9.31687
▁friend	-9.31695
▁toys	-9.31707
▁grocery	-9.31712
▁happy	-9.31712
▁giant	-9.31713
▁produce	-9.31721
▁hoodie	-9.31736
▁crying	-9.31743
▁washing	-9.31899
▁project	-9.31966
▁Chinese	-9.3222
sleeved	-9.32399
▁pond	-9.32475
▁booth	-9.32708
▁how	-9.32736
c	-9.32898
▁umbrellas	-9.33037
▁gun	-9.33219
▁dinner	-9.33246
▁fight	-9.33523
▁canoe	-9.33548
lined	-9.33567
▁van	-9.33784
g	-9.33877
▁Guy	-9.34277
▁jogging	-9.34277
l	-9.34308
▁print	-9.34329
▁mid	-9.34395
▁not	-9.34402
▁relaxing	-9.34527
▁post	-9.34749
▁skate	-9.34784
▁himself	-9.34797
▁square	-9.34803
▁climb	-9.34883
▁tire	-9.35233
▁sweeping	-9.35639
▁cut	-9.36092
▁mat	-9.36204
u	-9.36331
▁barefoot	-9.36675
▁pushe	-9.36767
▁cane	-9.37212
▁underneath	-9.37468
▁closed	-9.37601
▁teeth	-9.37985
man	-9.38726
▁picnic	-9.39065
▁trampoline	-9.39065
▁racket	-9.39067
▁kind	-9.39098
▁streets	-9.39117
▁un	-9.39432
▁books	-9.39536
▁string	-9.39747
▁part	-9.40036
▁end	-9.40276
▁windows	-9.40565
▁device	-9.40766
▁dancers	-9.4099
▁drawing	-9.40997
▁pulled	-9.41044
▁tricks	-9.41061
▁falling	-9.41267
▁tongue	-9.41269
▁fallen	-9.41279
▁roller	-9.41293
▁pair	-9.41324
▁khaki	-9.41335
▁singer	-9.41354
▁individuals	-9.41363
▁fair	-9.41665
▁heavy	-9.41827
▁atop	-9.41977
▁center	-9.42389
▁decorated	-9.42424
▁goes	-9.4244
▁musician	-9.42495
▁cloth	-9.42666
▁camouflage	-9.42954
▁wide	-9.42954
▁deep	-9.42967
re	-9.43201
▁round	-9.43201
▁officers	-9.43216
▁sea	-9.43252
▁also	-9.43522
▁daughter	-9.43522
▁muddy	-9.43522
▁cyclist	-9.43623
▁hose	-9.43629
▁These	-9.43747
▁balls	-9.43933
▁festival	-9.44094
▁including	-9.44095
▁wetsuit	-9.44181
▁repair	-9.44195
▁robe	-9.44232
▁chef	-9.44777
▁Dog	-9.44779
▁covering	-9.45131
▁crosswalk	-9.45248
th	-9.45333
▁M	-9.45365
▁plants	-9.45485
▁hula	-9.45828
▁cold	-9.45829
▁button	-9.45939
▁help	-9.46207
▁heads	-9.46351
▁jean	-9.46553
▁splashing	-9.467
▁Small	-9.47001
▁blouse	-9.47001
▁tunnel	-9.47001
skinned	-9.47001
▁curly	-9.47006
ous	-9.47042
▁wrappe	-9.47373
▁indoor	-9.47431
▁low	-9.47563
▁bicyclist	-9.47742
▁carnival	-9.48188
▁airplane	-9.48193
▁dances	-9.4827
▁taken	-9.4828
▁but	-9.48753
▁infant	-9.48787
▁groom	-9.48787
▁mural	-9.48804
▁start	-9.48823
▁obstacle	-9.48925
▁guard	-9.48968
▁whil	-9.49044
▁speaks	-9.49191
▁lone	-9.49952
▁curb	-9.49995
▁eats	-9.50105
▁stunt	-9.50165
▁move	-9.50273
▁denim	-9.50605
▁railroad	-9.50607
▁appear	-9.50709
▁marching	-9.50858
▁picking	-9.5105
▁half	-9.51216
▁golden	-9.51244
▁pot	-9.5135
▁new	-9.51359
▁hitt	-9.51763
▁points	-9.51771
▁balcony	-9.51836
▁bandanna	-9.51836
▁flies	-9.51838
▁lie	-9.51977
▁hooded	-9.52017
▁log	-9.52363
▁backyard	-9.52457
▁trash	-9.52463
▁kicks	-9.52616
▁e	-9.52713
▁Child	-9.53082
▁pavement	-9.53082
▁nice	-9.53668
▁surface	-9.53711
▁polo	-9.53713
▁knee	-9.53863
▁opening	-9.53949
▁sleeps	-9.54035
▁catche	-9.54188
▁runners	-9.54376
▁passes	-9.54391
▁Workers	-9.54509
▁cow	-9.54581
▁E	-9.54807
▁keyboard	-9.54976
▁referee	-9.54981
▁colors	-9.55069
▁hoop	-9.55219
S	-9.55407
▁puddle	-9.55622
▁local	-9.55622
▁driver	-9.55699
▁bottom	-9.55886
▁rolling	-9.55896
▁pack	-9.5601
ial	-9.56037
▁dry	-9.56126
▁Lady	-9.56267
▁piano	-9.56267
▁presentation	-9.5627
▁overalls	-9.56318
▁touching	-9.5652
▁finger	-9.56526
▁laundry	-9.56916
▁landscape	-9.56916
▁paved	-9.57004
▁shooting	-9.5733
ies	-9.57384
▁so	-9.57562
▁inspect	-9.5757
▁protective	-9.57571
▁drives	-9.57648
▁raised	-9.57833
▁climber	-9.57897
▁slides	-9.58164
▁gymnast	-9.58215
▁New	-9.58243
▁gate	-9.58793
▁harness	-9.58859
▁balancing	-9.5889
▁fabric	-9.5889
▁living	-9.5889
▁wrestling	-9.5889
▁ear	-9.5928
▁image	-9.59853
▁direction	-9.59859
▁waterfall	-9.60228
▁sale	-9.60228
▁females	-9.60498
▁belt	-9.60553
▁examin	-9.60554
▁luggage	-9.60903
▁sewing	-9.60903
▁orient	-9.60904
on	-9.60907
▁boats	-9.61028
▁kayak	-9.61139
▁tile	-9.6127
▁chest	-9.61347
ar	-9.61463
▁White	-9.61584
▁slope	-9.61726
▁mustache	-9.61827
2	-9.62473
▁fall	-9.62595
▁shoe	-9.62612
▁rest	-9.62674
k	-9.62768
▁pitcher	-9.63084
▁scaffolding	-9.63215
▁professional	-9.63238
▁chain	-9.6329
▁banner	-9.63293
▁checkered	-9.63653
▁navy	-9.63657
▁spray	-9.63771
▁wheelchair	-9.63992
▁shade	-9.64042
▁kiss	-9.64336
▁tractor	-9.64352
▁ship	-9.64388
▁goods	-9.64523
▁motorcycles	-9.64975
▁rugby	-9.65057
▁swims	-9.65119
▁dancer	-9.65524
▁skis	-9.65659
▁fans	-9.65709
▁tool	-9.65935
▁plane	-9.65955
▁stool	-9.6613
▁pipe	-9.66211
ra	-9.66266
▁papers	-9.66327
▁smoke	-9.66407
▁warm	-9.66445
▁adjust	-9.6648
▁shaving	-9.6648
ch	-9.66607
▁swimsuit	-9.66875
▁cone	-9.67026
el	-9.67099
▁inflatable	-9.67199
▁staircase	-9.67199
▁poles	-9.67287
covered	-9.67349
▁guitars	-9.6748
▁motor	-9.67923
▁juggling	-9.67924
▁garbage	-9.67928
▁paints	-9.6818
ither	-9.68657
▁goalie	-9.68668
▁without	-9.68883
▁wine	-9.68978
▁plant	-9.69139
▁c	-9.69154
▁load	-9.69192
▁dust	-9.69406
▁F	-9.69659
▁arena	-9.69713
▁sheet	-9.69842
▁bubble	-9.69873
▁guitarist	-9.69876
▁club	-9.7013
▁conversing	-9.7013
▁escalator	-9.7013
▁drummer	-9.70131
▁teenagers	-9.70227
sleeve	-9.70294
▁bit	-9.70439
▁saxophone	-9.70561
ple	-9.70631
rs	-9.70646
▁opposite	-9.70876
▁palm	-9.70876
▁lunch	-9.70876
▁saw	-9.70877
▁floral	-9.70892
▁hammer	-9.71367
▁bending	-9.71487
like	-9.71542
▁crew	-9.71629
▁raise	-9.7194
▁hurdle	-9.72236
▁York	-9.72385
▁podium	-9.72385
▁funny	-9.72386
▁hay	-9.72408
▁pattern	-9.7241
▁thrown	-9.7245
▁examine	-9.7278
▁ears	-9.72812
▁reache	-9.72849
▁soldier	-9.72873
ion	-9.72874
▁stares	-9.72914
▁themselves	-9.73149
z	-9.73155
▁boxes	-9.73229
▁shoveling	-9.73529
▁moves	-9.7369
▁feed	-9.73868
▁serving	-9.73918
▁trumpet	-9.73918
▁clean	-9.74067
▁hiker	-9.74442
ten	-9.74612
▁only	-9.74682
▁multi	-9.74688
▁Blond	-9.74693
▁shaking	-9.74694
▁Here	-9.74697
▁american	-9.74741
side	-9.74969
▁surf	-9.75242
▁raft	-9.75276
▁st	-9.75436
▁acoustic	-9.75474
▁model	-9.75474
▁neon	-9.75474
▁dig	-9.75489
▁birds	-9.75718
▁pedestrians	-9.75883
v	-9.75912
▁towel	-9.75991
▁balance	-9.76009
▁hood	-9.76031
▁container	-9.76036
▁barbecue	-9.76262
▁cloudy	-9.76315
▁pajamas	-9.76382
▁use	-9.76721
▁fingers	-9.76737
ur	-9.76856
▁robes	-9.76905
▁puppy	-9.77055
▁teacher	-9.77065
▁sleeve	-9.77143
▁riders	-9.77341
▁lane	-9.77593
▁practice	-9.77614
▁you	-9.77687
▁animals	-9.77785
▁steep	-9.77808
▁garb	-9.77851
▁carpet	-9.77856
▁foreign	-9.77856
▁biking	-9.77856
▁caught	-9.77856
▁porch	-9.77856
▁machinery	-9.77871
▁bread	-9.77912
▁formal	-9.77954
▁walls	-9.78299
▁snowboard	-9.78496
▁beam	-9.78515
▁I	-9.7857
▁racetrack	-9.78662
▁wagon	-9.78662
▁polka	-9.78662
▁puck	-9.78664
▁underwater	-9.78668
▁flight	-9.787
▁bucking	-9.78874
▁jerseys	-9.78996
▁present	-9.79271
▁athletic	-9.79475
▁style	-9.79642
▁pan	-9.797
▁eye	-9.8003
▁motorbike	-9.80065
▁tub	-9.80126
▁tube	-9.80154
▁name	-9.80296
▁dive	-9.80315
▁re	-9.80817
A	-9.81085
go	-9.81105
▁marketplace	-9.81121
▁ponytail	-9.81121
▁six	-9.81121
▁suspended	-9.81128
▁shown	-9.81212
▁surrounding	-9.81374
▁cones	-9.81503
▁fill	-9.81723
▁good	-9.81754
▁amusement	-9.81954
▁compete	-9.81954
▁herself	-9.81954
▁hospital	-9.81954
▁heels	-9.81955
▁headband	-9.81964
▁haircut	-9.81972
▁observing	-9.81989
▁rais	-9.82112
▁participat	-9.82243
▁blocks	-9.82299
▁member	-9.826
▁drill	-9.82795
▁routine	-9.82795
▁summer	-9.82795
▁socks	-9.82897
▁G	-9.82973
▁bend	-9.83173
▁Girls	-9.83262
▁form	-9.83601
▁intersection	-9.83642
▁money	-9.83642
▁candy	-9.83643
▁hallway	-9.83644
▁was	-9.8376
▁chases	-9.84248
▁opponent	-9.84301
▁paddle	-9.84311
▁happily	-9.84497
▁narrow	-9.84497
▁paddling	-9.84497
▁maroon	-9.84497
▁softball	-9.84498
il	-9.84641
▁backwards	-9.8469
▁push	-9.84907
▁frame	-9.851
▁position	-9.85124
ul	-9.85343
apanese	-9.85359
▁first	-9.85363
▁visible	-9.85378
▁tools	-9.85763
▁bottles	-9.86058
▁jumpsuit	-9.86061
▁wind	-9.86101
▁fast	-9.86116
▁tattoos	-9.86362
▁laughs	-9.86376
▁things	-9.86426
▁finish	-9.86534
▁meeting	-9.86584
▁b	-9.86599
▁pieces	-9.86622
shirts	-9.86642
▁poster	-9.87023
▁carriage	-9.87106
▁plaza	-9.87106
▁cobblestone	-9.87106
▁sheep	-9.87107
▁firetruck	-9.87108
▁celebrating	-9.87141
▁fur	-9.87141
▁boxing	-9.87464
if	-9.87753
▁individual	-9.8784
▁leaf	-9.87991
▁Santa	-9.87991
▁spread	-9.87997
▁Male	-9.87999
amp	-9.88011
▁laugh	-9.88044
▁tackle	-9.88049
▁pitch	-9.88074
it	-9.88299
x	-9.88307
▁backpacks	-9.88316
▁benches	-9.88446
▁necklace	-9.88729
▁advertisement	-9.88733
▁shadow	-9.88736
▁athlete	-9.88737
▁swimmer	-9.88739
▁speed	-9.88752
▁speech	-9.88883
▁German	-9.88884
▁mound	-9.88884
▁cast	-9.88916
ri	-9.89152
▁beverage	-9.89642
▁sneakers	-9.89846
▁crosses	-9.89899
▁map	-9.90089
▁rests	-9.90245
▁bicyclists	-9.90464
▁flowered	-9.90505
id	-9.90592
▁wire	-9.90592
ter	-9.90596
▁color	-9.90602
▁mall	-9.90682
▁frisbee	-9.90694
▁chew	-9.90694
▁handstand	-9.90708
▁performers	-9.90806
▁airport	-9.90895
▁cheerleaders	-9.91035
▁mix	-9.91132
▁leading	-9.91282
▁Brown	-9.91611
▁greyhound	-9.91611
▁museum	-9.91618
▁squatting	-9.91658
ive	-9.91815
able	-9.91974
▁catcher	-9.92258
▁drive	-9.92333
▁broom	-9.92404
▁skirts	-9.92406
▁teenager	-9.9247
▁gravel	-9.92537
▁coach	-9.92538
▁space	-9.92538
▁reflective	-9.92539
▁BM	-9.9254
▁sells	-9.92614
▁kneels	-9.92738
▁patio	-9.93471
▁rink	-9.93471
▁downtown	-9.93473
▁job	-9.9348
▁teal	-9.93482
▁peace	-9.93493
▁sets	-9.93764
▁p	-9.9387
colored	-9.93947
▁stripes	-9.94077
▁helps	-9.94203
▁customers	-9.94211
▁pick	-9.94227
▁cyclists	-9.94247
▁fenced	-9.94252
▁forward	-9.94517
▁K	-9.94603
▁gas	-9.94726
▁hikers	-9.94742
▁buying	-9.94918
▁nap	-9.9525
▁figure	-9.95278
ight	-9.95295
▁tag	-9.95298
▁branch	-9.95337
▁courtyard	-9.95367
▁operating	-9.95367
ment	-9.95522
▁sell	-9.95564
▁grilling	-9.9559
▁toss	-9.95788
down	-9.95842
▁computers	-9.96138
▁boardwalk	-9.96332
▁mostly	-9.96359
▁welding	-9.9638
▁step	-9.96752
▁'	-9.9724
▁cook	-9.97275
▁silhouette	-9.973
▁african	-9.97301
▁formation	-9.97304
▁baskets	-9.97421
▁evening	-9.97534
▁ahead	-9.97731
."	-9.97831
la	-9.98068
▁snowboarding	-9.98135
▁student	-9.98228
▁Female	-9.9828
▁Street	-9.9828
▁airborne	-9.9828
▁garage	-9.9828
▁mom	-9.98281
▁storefront	-9.98285
▁homeless	-9.98315
▁redheaded	-9.98396
▁bare	-9.98403
▁bars	-9.9849
▁cheering	-9.98764
▁bass	-9.99269
▁sink	-9.99271
▁possibly	-9.99283
▁tee	-9.99361
▁bath	-9.99617
▁W	-10.001
▁act	-10.0017
▁Crowd	-10.0027
▁attention	-10.0027
▁crane	-10.0027
▁college	-10.0028
▁policeman	-10.0031
age	-10.0039
▁spinn	-10.0042
▁read	-10.0046
▁indoors	-10.0104
▁scub	-10.0105
▁blows	-10.0116
ist	-10.0117
▁motorcyclist	-10.0125
▁design	-10.0125
▁Large	-10.0128
▁liquid	-10.0128
▁newborn	-10.0128
▁village	-10.0129
▁action	-10.0132
▁pay	-10.0136
▁single	-10.0149
▁folding	-10.015
▁racer	-10.0154
▁tied	-10.0159
▁carry	-10.0168
▁smokes	-10.0174
▁weather	-10.0209
▁shar	-10.0211
▁fly	-10.023
▁gentlemen	-10.023
▁carving	-10.023
▁sofa	-10.023
▁song	-10.0233
▁live	-10.0241
▁medic	-10.0269
ian	-10.0296
▁crossed	-10.033
▁tray	-10.0331
▁sword	-10.0332
▁rainbow	-10.0333
▁motocross	-10.0333
▁item	-10.0333
▁smaller	-10.0409
▁bite	-10.041
▁serve	-10.0427
▁magazine	-10.0437
▁entrance	-10.0437
▁intently	-10.0437
▁orchestra	-10.0437
▁studio	-10.0441
▁range	-10.0444
▁bow	-10.0469
▁rowing	-10.0481
▁power	-10.0487
▁balding	-10.0517
▁stack	-10.052
▁caps	-10.0523
ir	-10.0523
▁stroll	-10.0538
▁fresh	-10.0538
▁bouquet	-10.0543
▁lick	-10.0543
▁barber	-10.0544
▁castle	-10.0546
▁soldiers	-10.0581
▁bikers	-10.0587
▁hits	-10.0627
▁sing	-10.0635
▁knife	-10.0649
▁stove	-10.0649
▁rough	-10.0649
▁waist	-10.0649
▁bathroom	-10.0649
▁craft	-10.0653
▁lead	-10.0669
▁cover	-10.0671
▁shaped	-10.0674
▁protest	-10.0681
▁bear	-10.0747
▁strange	-10.0753
▁knit	-10.0756
▁ceiling	-10.0757
▁converse	-10.0757
▁library	-10.0757
▁neighborhood	-10.0757
▁cricket	-10.0757
▁crouches	-10.0757
▁bushes	-10.0758
▁splashes	-10.0759
▁closeup	-10.0759
▁ballet	-10.0773
▁shoot	-10.08
▁knees	-10.0827
ll	-10.0835
▁objects	-10.0836
▁skates	-10.0864
▁choir	-10.0865
▁second	-10.0865
▁cardboard	-10.0865
▁O	-10.0895
▁N	-10.0903
▁backdrop	-10.0923
▁turned	-10.0934
am	-10.0941
▁backs	-10.097
▁grab	-10.0974
▁headscarf	-10.0975
▁iron	-10.0975
▁native	-10.0975
▁case	-10.0975
▁corn	-10.0976
▁lamp	-10.0979
▁guns	-10.099
▁heart	-10.1006
▁flipp	-10.1031
▁farm	-10.1081
▁Soccer	-10.1086
▁pizza	-10.1086
▁dishes	-10.1089
▁bank	-10.1091
▁tents	-10.1132
▁order	-10.1134
▁cards	-10.1177
ol	-10.1184
▁pit	-10.1189
▁taxi	-10.1205
▁fan	-10.1205
▁pillow	-10.1207
▁stopped	-10.1207
▁dish	-10.1208
▁w	-10.1225
▁stretching	-10.1226
of	-10.1232
▁sweep	-10.1243
▁army	-10.1282
▁fruits	-10.1287
C	-10.1288
▁mop	-10.1303
rubber	-10.1305
▁ceremony	-10.1312
▁conference	-10.1312
▁transportation	-10.1312
▁elephant	-10.1321
flops	-10.1323
▁stops	-10.1332
▁vehicles	-10.1342
ation	-10.1343
▁pen	-10.1345
▁watched	-10.1379
▁land	-10.1379
▁creek	-10.1427
▁leaving	-10.1427
▁billboard	-10.1427
▁dining	-10.1427
▁buckets	-10.1461
▁point	-10.1469
▁wheels	-10.1487
▁skateboards	-10.1506
▁tug	-10.152
▁bounc	-10.1526
▁keep	-10.1527
▁photos	-10.1542
▁birthday	-10.1543
▁outstretched	-10.1543
▁unicycle	-10.1543
▁naked	-10.1543
▁City	-10.1544
▁tower	-10.1551
▁suitcase	-10.1554
▁electronic	-10.1554
▁barrel	-10.1556
▁called	-10.1559
▁tend	-10.1565
▁R	-10.1583
▁blow	-10.1583
looking	-10.1591
T	-10.1592
▁plates	-10.1597
▁cups	-10.1626
ent	-10.1642
▁jewelry	-10.1661
▁Police	-10.1661
▁jet	-10.1662
▁photographs	-10.167
▁chicken	-10.1674
▁share	-10.1676
▁skater	-10.1679
▁pigeons	-10.1692
I	-10.1718
▁participate	-10.1739
▁tops	-10.1748
neath	-10.1775
▁excited	-10.1776
▁wrestle	-10.1777
▁dreadlocks	-10.178
▁married	-10.178
▁telephone	-10.178
▁security	-10.178
▁apartment	-10.178
▁ropes	-10.1785
▁apply	-10.1789
▁dune	-10.1794
▁ribbon	-10.1795
▁youth	-10.1796
▁vegetable	-10.1796
▁H	-10.1823
▁cuts	-10.1897
▁hall	-10.19
▁ballerina	-10.1901
▁wading	-10.1901
▁soda	-10.1901
▁calm	-10.1901
▁horseback	-10.1902
▁exercise	-10.1916
▁lines	-10.1939
▁falls	-10.1963
▁observe	-10.1964
▁directions	-10.1968
▁star	-10.1984
▁microphones	-10.2017
▁patient	-10.2018
▁pretty	-10.2023
▁rural	-10.2023
▁discussion	-10.2023
▁wings	-10.2023
▁terrain	-10.2024
▁loom	-10.2025
men	-10.2027
▁donkey	-10.2039
ry	-10.2048
▁balances	-10.2062
▁doors	-10.2062
▁pett	-10.2071
▁trailer	-10.2072
▁photographed	-10.2079
▁pet	-10.2101
out	-10.2103
ling	-10.2126
▁contain	-10.214
▁embrace	-10.2146
▁spoon	-10.2146
▁dimly	-10.2147
▁flute	-10.2147
▁rod	-10.2149
▁hillside	-10.2152
is	-10.2153
▁artwork	-10.2174
▁upon	-10.2188
▁checks	-10.2214
ack	-10.2238
▁cage	-10.2262
▁fisherman	-10.2271
▁huddle	-10.2271
▁straight	-10.2271
▁shake	-10.2274
▁Boys	-10.229
▁barrier	-10.2291
▁kite	-10.2298
▁attending	-10.2309
▁traveling	-10.2311
▁control	-10.2312
ical	-10.2324
▁collared	-10.2343
▁passengers	-10.2352
▁casual	-10.2393
▁Caucasian	-10.2398
▁derby	-10.2398
▁jungle	-10.2398
▁fancy	-10.2398
▁batter	-10.2403
▁doll	-10.2408
▁rug	-10.2419
▁gown	-10.242
▁doctor	-10.242
▁snack	-10.2421
▁gathers	-10.2439
ro	-10.2444
▁hike	-10.2523
▁ethnic	-10.2525
▁far	-10.2525
▁partially	-10.2526
▁steel	-10.2526
▁teaching	-10.2526
▁furry	-10.2526
▁pottery	-10.2528
▁shovels	-10.256
board	-10.2579
▁buy	-10.261
▁leads	-10.2652
▁crafts	-10.2652
▁lounge	-10.2656
▁calf	-10.2656
▁still	-10.2656
▁slightly	-10.2656
▁record	-10.2664
▁discussing	-10.2681
▁jockey	-10.2682
▁teammate	-10.2683
▁tight	-10.2688
▁entertain	-10.2735
▁cool	-10.2745
▁card	-10.2775
▁dusk	-10.2787
▁furniture	-10.2787
▁mobile	-10.2787
▁broken	-10.2787
▁fluffy	-10.2787
▁stall	-10.2787
▁more	-10.2788
▁kayaking	-10.2789
▁had	-10.2791
▁shaved	-10.2791
▁customer	-10.2817
▁cleans	-10.2833
▁camping	-10.2835
▁thumbs	-10.2844
war	-10.2845
▁turning	-10.2848
▁tattooed	-10.2851
▁clouds	-10.2854
▁writ	-10.2861
▁thin	-10.2867
▁leap	-10.2886
P	-10.289
▁clay	-10.2921
▁great	-10.2921
▁religious	-10.2921
▁bleachers	-10.2921
▁clapping	-10.2921
▁It	-10.2924
▁overhead	-10.2925
▁tea	-10.293
▁crouching	-10.2931
▁engaged	-10.2931
▁seats	-10.2934
lo	-10.2938
▁free	-10.2945
▁training	-10.2949
▁cheek	-10.295
▁come	-10.2954
▁shops	-10.2955
▁parents	-10.2957
▁rainy	-10.2975
▁shower	-10.2978
▁strike	-10.2987
▁St	-10.3018
▁r	-10.3038
▁sandwich	-10.3053
▁most	-10.3053
▁patch	-10.3055
▁advertising	-10.3056
se	-10.3072
▁trunk	-10.3088
▁duck	-10.3091
ver	-10.3103
▁creat	-10.3107
▁me	-10.3126
▁protesting	-10.3144
▁engine	-10.3164
top	-10.3176
▁similar	-10.3188
▁factory	-10.3193
▁gymnasium	-10.3193
▁slacks	-10.3193
▁trashcan	-10.3193
▁moment	-10.3194
▁cello	-10.3194
▁tape	-10.3203
▁po	-10.3204
▁clad	-10.3211
▁v	-10.325
ng	-10.325
▁candles	-10.3259
▁plac	-10.3263
D	-10.3277
American	-10.3283
▁coloring	-10.3298
▁though	-10.3328
▁Football	-10.3332
▁fencing	-10.3332
▁section	-10.3332
▁variet	-10.3332
▁downhill	-10.3332
▁turban	-10.3332
▁motion	-10.3332
▁hug	-10.3346
▁moped	-10.336
▁peer	-10.3368
▁tourist	-10.3368
▁waters	-10.3373
▁splash	-10.3377
▁grinding	-10.3379
▁cheer	-10.3387
▁follows	-10.3398
red	-10.3427
▁focus	-10.3438
▁listen	-10.3442
▁shin	-10.3443
ful	-10.345
E	-10.3453
ning	-10.3456
▁score	-10.3463
▁ornate	-10.3468
▁chalk	-10.3472
▁rack	-10.3472
▁yoga	-10.3472
▁chinese	-10.3472
▁fetch	-10.3473
▁logo	-10.3481
▁cooks	-10.3482
us	-10.3496
ie	-10.35
▁gymnastics	-10.35
▁glove	-10.3501
▁kilt	-10.3508
▁relax	-10.3516
▁following	-10.3517
▁teen	-10.353
est	-10.3539
op	-10.3565
▁tourists	-10.3578
midst	-10.358
▁covers	-10.3611
ized	-10.3613
▁exhibit	-10.3615
O	-10.3615
▁television	-10.3615
▁Middle	-10.3615
▁reflection	-10.3616
▁dunk	-10.3617
▁rear	-10.3619
▁numbers	-10.362
▁branches	-10.362
▁link	-10.3623
▁folded	-10.3626
▁perch	-10.3629
▁g	-10.3632
ct	-10.3644
▁paddles	-10.3646
▁horn	-10.3659
▁curve	-10.369
and	-10.3701
L	-10.3729
▁weaving	-10.376
▁flat	-10.3761
ying	-10.3785
▁chase	-10.3793
▁parachute	-10.38
▁material	-10.3801
▁de	-10.3802
et	-10.3837
mo	-10.3861
sh	-10.3874
▁spraying	-10.3906
▁Elder	-10.3907
▁wheelbarrow	-10.3907
▁forehead	-10.3907
▁dead	-10.3907
▁wheelie	-10.3915
▁athletes	-10.3922
▁closely	-10.3923
led	-10.3929
▁rows	-10.3933
▁fak	-10.3935
▁sprinkler	-10.3952
▁scen	-10.3968
ho	-10.3974
▁AT	-10.3991
weight	-10.4007
▁tropical	-10.4057
▁beanie	-10.4057
▁notebook	-10.4057
▁theater	-10.4057
▁fireman	-10.4064
▁belly	-10.4067
▁Red	-10.4075
ish	-10.4077
▁whom	-10.408
▁gestures	-10.4138
lit	-10.4157
▁pins	-10.416
▁listens	-10.4168
▁chopp	-10.4189
▁pin	-10.419
▁larger	-10.4201
▁He	-10.4203
ting	-10.4207
▁chess	-10.4208
circular	-10.4208
▁Couple	-10.4208
▁groceries	-10.4208
▁nature	-10.4208
▁peek	-10.4208
▁nighttime	-10.4209
▁hotel	-10.421
▁grabb	-10.4211
▁coaster	-10.4211
▁pale	-10.4211
▁crouched	-10.4212
ant	-10.4228
ine	-10.4236
▁sides	-10.4239
ping	-10.424
▁word	-10.4259
▁dot	-10.426
▁ages	-10.4277
▁laptops	-10.4296
▁speak	-10.4338
▁canvas	-10.4362
▁lecture	-10.4362
▁wild	-10.4362
▁crawl	-10.4362
▁sniff	-10.4362
land	-10.4363
▁stoop	-10.4363
▁scenery	-10.4364
▁world	-10.4365
▁pathway	-10.4365
▁casually	-10.4367
▁venue	-10.4368
▁messy	-10.4369
▁aisle	-10.4369
▁stare	-10.4381
▁swimmers	-10.4387
▁done	-10.439
▁practices	-10.4409
▁apple	-10.4413
▁co	-10.442
▁support	-10.4423
▁placed	-10.443
ha	-10.4472
li	-10.4494
▁observes	-10.4496
▁own	-10.4512
▁tires	-10.4516
▁visit	-10.4517
▁juice	-10.4518
▁movie	-10.4518
▁puppies	-10.4518
▁tripod	-10.4518
▁chat	-10.4518
▁carefully	-10.4518
▁rally	-10.4519
▁firemen	-10.4521
▁eastern	-10.4525
▁strip	-10.454
▁saying	-10.4554
ted	-10.4556
▁sized	-10.4561
▁notes	-10.4569
▁draw	-10.4573
im	-10.4575
▁win	-10.4583
ky	-10.4616
▁firefighters	-10.4619
▁peers	-10.4636
▁hugs	-10.4636
▁bricks	-10.4643
▁rollerskating	-10.4677
▁chatting	-10.4677
▁tail	-10.4677
▁chalkboard	-10.4677
▁shoreline	-10.4678
▁wares	-10.468
▁binoculars	-10.4684
▁mini	-10.4707
▁turns	-10.471
▁carts	-10.4715
▁approaching	-10.4716
▁viewing	-10.4728
▁jumped	-10.4796
round	-10.4805
▁pigtails	-10.4838
▁pumpkin	-10.4838
▁seven	-10.4838
▁yarn	-10.4838
▁hind	-10.4838
▁rollerblading	-10.4838
▁celebration	-10.4838
▁supplies	-10.4838
▁skinny	-10.4838
▁dough	-10.4838
▁portrait	-10.4839
▁tiny	-10.4842
▁touche	-10.485
▁missing	-10.4853
▁snowshoes	-10.4856
ite	-10.4857
▁rolled	-10.486
▁surfs	-10.4892
▁firefighter	-10.4897
▁passenger	-10.4897
▁bin	-10.4916
▁London	-10.5002
▁environment	-10.5002
▁umpire	-10.5002
▁pause	-10.5002
▁human	-10.5002
▁stump	-10.5002
▁sunlight	-10.5003
▁alleyway	-10.5003
▁descent	-10.5004
▁kisses	-10.5009
▁we	-10.5013
arious	-10.5019
▁oven	-10.5025
ne	-10.5031
▁complete	-10.5042
▁presents	-10.5049
▁feather	-10.5063
▁stripe	-10.5091
▁march	-10.5097
style	-10.511
▁teammates	-10.5135
▁races	-10.5139
▁torch	-10.5166
▁industr	-10.5169
▁modern	-10.5169
▁silly	-10.5169
ular	-10.5186
at	-10.5195
▁learning	-10.5196
▁shadows	-10.5197
▁trip	-10.5224
▁Multip	-10.5224
▁played	-10.5228
▁expression	-10.5231
▁hut	-10.5242
▁beat	-10.5249
▁masks	-10.5253
▁shades	-10.5254
▁mass	-10.5263
▁meet	-10.527
▁eggs	-10.5283
▁late	-10.5283
▁hoops	-10.5284
▁real	-10.5295
▁roll	-10.5307
▁While	-10.5338
▁briefcase	-10.5338
▁embracing	-10.5338
▁frozen	-10.5338
▁rifle	-10.5338
▁stomach	-10.5338
ta	-10.5338
▁almost	-10.5338
▁consist	-10.5338
▁chainsaw	-10.5338
▁arcade	-10.5338
▁semi	-10.5338
▁quickly	-10.5339
▁bowls	-10.5343
▁test	-10.5347
▁rollerskates	-10.5354
▁wig	-10.5404
▁camel	-10.5406
▁admir	-10.5407
▁products	-10.5419
▁displays	-10.5437
▁landing	-10.5442
▁con	-10.5478
▁collect	-10.5486
gg	-10.5492
wn	-10.5502
aseball	-10.551
▁contest	-10.551
▁alcohol	-10.5511
▁butterfly	-10.5511
▁lasso	-10.5511
▁Famil	-10.5511
▁medium	-10.5511
▁soap	-10.5511
▁handrail	-10.5512
▁Students	-10.5519
▁rapids	-10.5528
Baby	-10.5529
▁racers	-10.553
▁opens	-10.5533
▁midst	-10.5535
▁bib	-10.5543
ily	-10.5562
▁pads	-10.5578
▁featur	-10.5578
▁vendors	-10.5578
▁nail	-10.558
▁crates	-10.5582
▁touch	-10.5618
▁words	-10.563
W	-10.5638
um	-10.564
▁comes	-10.5646
▁chin	-10.5686
▁chocolate	-10.5686
▁gallery	-10.5686
▁trench	-10.5686
▁suspenders	-10.5686
▁spotted	-10.5687
▁indian	-10.5687
▁mechanic	-10.5688
▁service	-10.5688
▁flips	-10.5688
▁Pedestrians	-10.5693
▁scale	-10.5695
one	-10.5702
▁lower	-10.5715
▁build	-10.5716
▁lighting	-10.5716
▁bagpipes	-10.5736
▁interacting	-10.5741
▁leotard	-10.5758
▁gift	-10.5759
ve	-10.5759
▁pine	-10.5759
▁houses	-10.5763
▁owner	-10.5763
ance	-10.5775
▁Olympics	-10.5785
▁call	-10.5785
▁rolls	-10.5795
M	-10.5812
as	-10.5837
▁process	-10.5864
▁bamboo	-10.5865
▁debris	-10.5865
▁elaborate	-10.5865
▁shawl	-10.5865
▁valley	-10.5865
▁bulldozer	-10.5865
▁joy	-10.5865
▁decorative	-10.5866
▁sh	-10.5866
▁rooftop	-10.5867
▁cape	-10.587
▁nun	-10.5873
ated	-10.5875
▁scrubs	-10.5875
▁squirt	-10.5879
▁drawn	-10.5888
▁strapp	-10.5906
▁Co	-10.5914
▁tricycle	-10.594
les	-10.5957
▁camels	-10.5975
camera	-10.5998
way	-10.5999
ge	-10.6006
▁stones	-10.6025
▁milk	-10.6046
▁turquoise	-10.6046
▁double	-10.6046
▁rice	-10.6046
▁blood	-10.6047
▁lacrosse	-10.6047
▁drap	-10.6047
▁knitting	-10.6047
▁underwear	-10.6049
▁built	-10.605
▁within	-10.6073
▁war	-10.6077
▁gr	-10.6086
▁cab	-10.6095
ill	-10.6107
▁begins	-10.6117
▁n	-10.6125
▁sailboat	-10.6125
▁sp	-10.6127
▁boxer	-10.6158
▁scaffold	-10.6163
B	-10.6182
▁tights	-10.6194
▁wash	-10.6194
▁bra	-10.6209
▁poor	-10.6229
▁information	-10.6232
▁monument	-10.6232
▁amount	-10.6232
▁helicopter	-10.6232
▁stairway	-10.6232
▁mill	-10.6232
▁brass	-10.6233
▁playfully	-10.6234
▁Cheerleaders	-10.6235
▁rollerblades	-10.6243
▁wires	-10.6259
▁Tourists	-10.626
▁cameraman	-10.6269
mp	-10.6275
▁diver	-10.6287
▁machines	-10.6312
▁crown	-10.6313
▁hotdog	-10.6315
▁Olympic	-10.6315
▁wrestler	-10.6319
uck	-10.6319
tt	-10.6324
▁cute	-10.6356
▁ma	-10.6382
▁involv	-10.6397
▁odd	-10.6416
▁locat	-10.642
▁bathtub	-10.642
▁chisel	-10.642
▁contraption	-10.642
▁demonstration	-10.642
▁identical	-10.642
▁lounging	-10.642
▁merchandise	-10.642
▁pinata	-10.642
▁target	-10.642
▁trolley	-10.642
▁Mohawk	-10.642
▁monkey	-10.642
▁stretches	-10.6422
▁approaches	-10.6422
▁mower	-10.6428
▁ra	-10.6428
▁praying	-10.644
▁blankets	-10.6456
▁tackled	-10.6461
▁writes	-10.6466
▁beads	-10.6476
▁games	-10.6485
co	-10.6497
▁angel	-10.6505
▁swimsuits	-10.6507
▁gesture	-10.6508
▁sack	-10.6508
▁Wi	-10.6509
▁Kid	-10.6509
sized	-10.6512
▁stepp	-10.6518
▁camp	-10.6538
▁enter	-10.6544
line	-10.6547
▁wheeled	-10.6553
no	-10.6562
▁skiers	-10.6565
▁disc	-10.6568
▁hid	-10.6578
pe	-10.6581
ap	-10.6587
▁tour	-10.6594
▁company	-10.6613
▁highchair	-10.6613
▁lime	-10.6613
▁marble	-10.6613
▁wife	-10.6613
▁mohawk	-10.6613
▁plain	-10.6613
▁surgery	-10.6613
▁polish	-10.6613
▁Band	-10.6614
▁highway	-10.6617
▁Lot	-10.6622
▁story	-10.6624
▁brushes	-10.6625
▁mountainside	-10.6625
▁mow	-10.6648
▁spot	-10.6703
▁pillar	-10.6706
tion	-10.6764
▁j	-10.6767
ma	-10.6787
ke	-10.6798
▁cheese	-10.6809
▁demonstrating	-10.6809
▁heavily	-10.6809
▁shaggy	-10.6809
▁stilts	-10.6809
▁tiger	-10.6809
▁sledding	-10.6809
▁mug	-10.6809
▁location	-10.6809
▁find	-10.6809
▁main	-10.681
▁steam	-10.6811
▁were	-10.6817
▁interesting	-10.6823
▁cargo	-10.6828
▁followed	-10.683
▁battle	-10.6832
▁fishes	-10.6834
ard	-10.6863
▁pretending	-10.6869
▁gazes	-10.6869
▁loaded	-10.6871
R	-10.6879
▁jogs	-10.6879
N	-10.6895
▁couples	-10.6902
▁pedestrian	-10.6904
▁scooters	-10.692
▁lifted	-10.6936
work	-10.6941
na	-10.6943
▁will	-10.6952
▁menu	-10.6974
▁aprons	-10.7
▁burgundy	-10.7009
▁cycling	-10.7009
▁butcher	-10.7009
▁beret	-10.7009
▁snowsuit	-10.7009
▁spotlight	-10.7009
▁breakdancing	-10.7009
▁workshop	-10.7009
▁sad	-10.7009
▁homemade	-10.7009
sses	-10.701
▁jumper	-10.7015
▁axe	-10.7018
▁bush	-10.7021
▁shiny	-10.7025
▁sleep	-10.7027
▁hills	-10.7031
▁carve	-10.7046
▁toddlers	-10.7071
▁goat	-10.7106
▁farmer	-10.7117
▁receiv	-10.7138
▁grind	-10.7142
▁newspapers	-10.7146
▁teens	-10.7158
country	-10.7164
wood	-10.7165
▁cop	-10.7188
▁autumn	-10.7213
▁banjo	-10.7213
▁smooth	-10.7213
▁cotton	-10.7213
▁jeep	-10.7213
▁Musician	-10.7213
▁raincoat	-10.7213
▁pig	-10.7213
hif	-10.7214
▁policemen	-10.7216
ring	-10.7216
▁displayed	-10.7217
▁label	-10.7218
▁snowball	-10.7223
▁figures	-10.7232
▁dragg	-10.7234
▁sidelines	-10.724
da	-10.7245
▁tired	-10.7251
▁posters	-10.7257
▁cans	-10.7265
▁punching	-10.7271
▁colorfully	-10.7294
▁dad	-10.7296
▁cloud	-10.7305
ital	-10.7326
▁f	-10.735
▁pop	-10.7369
F	-10.7372
▁Dogs	-10.7381
▁us	-10.7398
▁vend	-10.742
▁extreme	-10.7421
▁laboratory	-10.7421
▁miniature	-10.7421
▁breath	-10.7421
▁Orient	-10.7421
▁Army	-10.7421
▁aerial	-10.7422
ia	-10.7426
▁love	-10.7435
▁got	-10.7443
▁studying	-10.7444
▁da	-10.745
▁burning	-10.746
▁boards	-10.7469
▁egg	-10.7491
▁containers	-10.7492
ac	-10.752
▁nurse	-10.7528
▁monitor	-10.7528
▁separate	-10.7538
▁wrestlers	-10.754
▁fashion	-10.7544
▁vacuum	-10.7564
▁clearing	-10.757
dressed	-10.7577
▁planting	-10.7621
▁places	-10.7623
rimmed	-10.7629
▁headdress	-10.7633
▁Blue	-10.7634
▁Firefighter	-10.7634
▁graduation	-10.7634
▁laundromat	-10.7634
▁science	-10.7634
▁shepherd	-10.7634
▁tournament	-10.7634
▁leggings	-10.7634
▁scoop	-10.7634
▁underground	-10.7636
▁businessman	-10.7639
▁gaz	-10.7639
▁retriever	-10.7645
▁handling	-10.7651
▁stretched	-10.7651
▁rush	-10.7658
▁travel	-10.7669
▁splashed	-10.767
▁lips	-10.769
▁attack	-10.7691
ther	-10.7701
ad	-10.7704
▁tackl	-10.7705
▁columns	-10.771
▁entering	-10.7712
▁rings	-10.7725
▁treat	-10.7743
▁brother	-10.7744
▁candle	-10.7747
▁images	-10.7755
▁pots	-10.7785
fashioned	-10.7799
▁ducks	-10.78
▁chefs	-10.781
▁snacks	-10.7812
▁hook	-10.7828
▁rust	-10.785
▁experiment	-10.7851
▁gesturing	-10.7851
▁socializing	-10.7851
▁toothbrush	-10.7851
▁warehouse	-10.7851
▁Hawaii	-10.7851
▁Hockey	-10.7851
▁dumpster	-10.7851
▁driveway	-10.7852
▁merr	-10.7852
▁trim	-10.7852
▁Asia	-10.7853
▁handbag	-10.7853
▁tablecloth	-10.7854
▁include	-10.786
▁panel	-10.7863
▁follow	-10.7875
▁beverages	-10.7886
▁cameras	-10.7895
▁ch	-10.7919
▁sleeves	-10.7921
▁attractive	-10.796
▁mannequin	-10.7965
▁pirate	-10.7966
▁tuxedo	-10.7967
▁product	-10.7968
▁speaker	-10.7973
ure	-10.7984
▁interact	-10.8009
▁too	-10.8014
▁tri	-10.8052
▁Be	-10.8055
▁drop	-10.8073
▁belongings	-10.8074
▁flannel	-10.8074
▁kiosk	-10.8074
▁official	-10.8074
▁reception	-10.8074
▁somewhere	-10.8074
▁supermarket	-10.8074
▁suburb	-10.8074
▁department	-10.8074
▁fry	-10.8074
▁conductor	-10.8074
▁instructor	-10.8074
▁daytime	-10.8077
▁projector	-10.8078
▁sharp	-10.8079
▁designs	-10.808
▁nets	-10.8089
▁Runners	-10.8094
▁squats	-10.8099
▁framed	-10.8101
▁create	-10.8103
▁crayons	-10.8108
ally	-10.8111
▁mo	-10.8116
▁skills	-10.812
▁sailing	-10.8136
▁operates	-10.8142
▁Ch	-10.8154
by	-10.8157
▁attend	-10.8159
▁artists	-10.8174
▁washe	-10.8175
▁handle	-10.8192
▁employee	-10.8195
▁medi	-10.8213
▁pretend	-10.8231
▁divers	-10.8241
▁h	-10.8252
▁rag	-10.8255
day	-10.8267
qu	-10.8288
▁Fire	-10.8291
▁unusual	-10.8296
▁aged	-10.8296
▁faci	-10.83
▁Shepherd	-10.8301
▁Spectator	-10.8301
▁auditorium	-10.8301
▁caucasian	-10.8301
▁cherry	-10.8301
▁terminal	-10.8301
▁festive	-10.8301
▁scaling	-10.8301
▁arrang	-10.8301
▁sideways	-10.8301
▁pilot	-10.8301
▁clock	-10.8301
▁reflect	-10.8301
▁skyline	-10.8303
▁level	-10.8308
▁awning	-10.8309
▁lock	-10.8313
▁picks	-10.8325
▁decorations	-10.8339
▁pro	-10.8342
▁canal	-10.8354
▁topless	-10.8357
▁fit	-10.8398
▁drag	-10.84
ear	-10.8407
▁shape	-10.8424
ate	-10.8464
▁crack	-10.848
▁celebrate	-10.8488
▁repairs	-10.8492
▁School	-10.8533
▁Shirtless	-10.8533
▁activity	-10.8533
▁eyeglasses	-10.8533
▁meadow	-10.8533
▁fireworks	-10.8533
▁staff	-10.8533
▁thick	-10.8533
▁British	-10.8533
▁unload	-10.8534
▁blurry	-10.8534
▁join	-10.8534
▁lion	-10.8534
▁bound	-10.8539
▁tell	-10.8539
▁stay	-10.8539
▁return	-10.8541
ig	-10.8544
▁marked	-10.8545
▁waterway	-10.8568
▁letters	-10.8573
▁types	-10.8589
▁arch	-10.8596
▁mic	-10.8618
▁receive	-10.8619
me	-10.8623
ating	-10.8629
ery	-10.8642
▁curtain	-10.8664
▁shield	-10.8664
▁upward	-10.8666
▁bottoms	-10.8681
▁cows	-10.8686
▁logs	-10.8695
ence	-10.8708
▁guards	-10.8709
ce	-10.8719
▁extend	-10.8748
▁shad	-10.8757
▁Mexic	-10.877
▁wade	-10.8771
▁babies	-10.8771
▁campfire	-10.8771
▁champagne	-10.8771
▁foliage	-10.8771
▁harbor	-10.8771
▁hydrant	-10.8771
▁olive	-10.8771
▁blurred	-10.8772
▁passersby	-10.8772
▁browsing	-10.8772
▁lining	-10.8772
▁tarp	-10.8772
▁Mother	-10.8772
▁ATM	-10.8772
▁else	-10.8772
▁whistle	-10.8772
▁bedroom	-10.8773
▁blazer	-10.8773
▁Skateboarder	-10.8775
▁scissors	-10.8775
▁statues	-10.8777
▁bundled	-10.878
▁shoppers	-10.8786
▁skies	-10.8792
▁purchase	-10.8795
▁bring	-10.8806
▁boarding	-10.8807
▁crashing	-10.8818
▁organiz	-10.883
▁text	-10.8838
Eastern	-10.886
▁ridd	-10.8874
▁mouths	-10.8891
SA	-10.8903
ball	-10.8905
▁hotdogs	-10.8906
▁direct	-10.8927
ut	-10.8929
▁punch	-10.8943
▁bikinis	-10.8949
ness	-10.8961
▁don	-10.8989
os	-10.9002
▁Canadian	-10.9015
▁Hispanic	-10.9015
▁South	-10.9015
▁aquarium	-10.9015
▁horizon	-10.9015
▁pencil	-10.9015
▁razor	-10.9015
▁rickshaw	-10.9015
▁scarves	-10.9015
▁shelf	-10.9015
▁skull	-10.9015
▁victory	-10.9015
▁zone	-10.9015
▁magazines	-10.9015
▁avoid	-10.9015
▁burie	-10.9015
▁toilet	-10.9015
▁series	-10.9015
▁diner	-10.9016
▁transit	-10.9016
▁aqua	-10.9016
▁surprised	-10.9018
▁ingredients	-10.9019
▁yelling	-10.9025
▁upper	-10.903
▁bystanders	-10.903
▁tags	-10.9038
▁focused	-10.906
▁ex	-10.906
▁protesters	-10.9067
ave	-10.907
▁photographers	-10.9078
▁cleaner	-10.9081
▁characters	-10.9085
▁sail	-10.9087
laid	-10.9096
do	-10.9097
▁bananas	-10.9101
ped	-10.9138
▁Ma	-10.9147
po	-10.9153
▁golfer	-10.9156
▁care	-10.9157
▁boxers	-10.9168
▁launch	-10.9188
▁spike	-10.9188
ot	-10.9197
air	-10.9198
ton	-10.9201
j	-10.9204
▁zip	-10.9207
green	-10.9217
▁than	-10.9263
▁cigar	-10.9265
▁Smiling	-10.9265
▁bronco	-10.9265
▁chopsticks	-10.9265
▁temple	-10.9265
▁unique	-10.9265
▁assort	-10.9265
▁lens	-10.9265
▁sound	-10.9265
▁emergency	-10.9266
eval	-10.9266
▁want	-10.9266
▁sailor	-10.9266
▁fellow	-10.9267
▁relaxe	-10.9267
▁eight	-10.9268
▁booths	-10.9277
car	-10.928
▁mess	-10.9286
▁extended	-10.929
▁skin	-10.9295
▁advertisements	-10.9308
▁earrings	-10.931
▁rescue	-10.9326
ging	-10.9332
▁bagg	-10.9343
▁We	-10.9386
iming	-10.9392
ity	-10.9394
▁muzzle	-10.9406
▁checked	-10.941
▁ticket	-10.9415
▁capture	-10.9417
▁crate	-10.9417
▁blocking	-10.9421
▁Mi	-10.9447
▁protect	-10.9448
▁mus	-10.9462
▁wrap	-10.9479
▁stars	-10.9485
▁amid	-10.9497
▁signal	-10.9498
▁search	-10.9509
▁coast	-10.9517
▁Close	-10.9522
▁Square	-10.9522
▁antique	-10.9522
▁casino	-10.9522
▁christmas	-10.9522
▁clutch	-10.9522
▁dinosaur	-10.9522
▁earphones	-10.9522
▁morning	-10.9522
▁natural	-10.9522
▁scientist	-10.9522
▁senior	-10.9522
▁community	-10.9522
▁snake	-10.9522
▁China	-10.9522
▁buffet	-10.9522
▁Native	-10.9522
▁stirring	-10.9522
▁soft	-10.9522
▁Green	-10.9522
▁arrow	-10.9523
▁sat	-10.9523
▁plow	-10.9523
cular	-10.9523
▁adorn	-10.9525
▁paperwork	-10.9526
▁stir	-10.9531
wish	-10.9539
▁cellphones	-10.9544
▁tv	-10.9545
▁numbered	-10.9554
▁filming	-10.9569
▁Re	-10.9578
▁used	-10.9582
mi	-10.9587
▁roses	-10.9592
▁buck	-10.9608
▁sprayed	-10.9609
ary	-10.9624
▁beers	-10.9624
ons	-10.9635
▁prepared	-10.9644
ki	-10.9654
▁cowboys	-10.9656
▁farmers	-10.9659
▁passed	-10.967
▁l	-10.9676
▁poodle	-10.9678
▁McDonald	-10.9678
▁peak	-10.9679
▁marker	-10.9679
▁dump	-10.968
▁thumb	-10.968
ue	-10.9697
▁Ro	-10.9698
▁mi	-10.9704
▁ten	-10.9728
ug	-10.9737
▁Cowboy	-10.9785
▁accompanie	-10.9785
▁bmx	-10.9785
▁commerc	-10.9785
▁harmonica	-10.9785
▁tribal	-10.9785
▁personnel	-10.9785
▁establishment	-10.9785
▁quarterback	-10.9785
▁transport	-10.9785
▁lush	-10.9785
▁flock	-10.9785
▁bartender	-10.9785
▁European	-10.9786
▁afternoon	-10.9787
▁sponsor	-10.9787
▁injured	-10.979
▁motorcyclists	-10.9794
▁deer	-10.9795
▁asking	-10.9801
▁foam	-10.9807
▁pr	-10.9815
▁dryer	-10.9833
▁pointed	-10.9839
▁jumpsuits	-10.9839
▁age	-10.985
▁clowns	-10.9857
▁cooler	-10.9871
▁employees	-10.9909
▁floats	-10.9911
▁wheeler	-10.9932
▁maneuver	-10.9947
▁garment	-10.9948
▁tutu	-10.9948
▁begin	-10.995
un	-10.996
▁news	-10.9974
▁pad	-10.9974
▁descend	-10.9985
▁organ	-10.9998
▁Do	-11.0002
▁ho	-11.0003
piece	-11.0006
white	-11.0007
▁pictured	-11.002
▁interview	-11.0031
▁India	-11.0052
▁surg	-11.0055
▁ref	-11.0055
▁Toddler	-11.0055
▁companion	-11.0055
▁connect	-11.0055
▁flaming	-11.0055
▁holiday	-11.0055
▁possession	-11.0055
▁puppet	-11.0055
▁racquet	-11.0055
▁Basketball	-11.0055
▁twirling	-11.0055
▁portable	-11.0056
▁raking	-11.0056
▁Dark	-11.0056
▁icy	-11.0056
▁swan	-11.0057
▁historic	-11.006
▁directly	-11.006
▁bay	-11.0061
▁mountaintop	-11.0065
▁freshly	-11.0066
▁tuba	-11.0072
vel	-11.0075
▁She	-11.0076
▁lighted	-11.0076
pp	-11.008
▁crops	-11.0101
▁viewer	-11.0127
ain	-11.0128
H	-11.0146
▁sheets	-11.0171
▁Se	-11.0176
▁strik	-11.0196
▁boulder	-11.0225
▁pocket	-11.0227
▁cheerleader	-11.0228
ger	-11.0238
pi	-11.0248
▁approach	-11.0261
shaped	-11.0284
▁rafting	-11.0302
▁tow	-11.0303
be	-11.0314
▁su	-11.0323
▁package	-11.0327
▁competitive	-11.0329
▁intense	-11.0329
▁file	-11.033
▁apart	-11.0333
▁Soldier	-11.0333
▁demonstrate	-11.0333
▁perhaps	-11.0333
▁riot	-11.0333
▁system	-11.0333
▁elevator	-11.0333
▁maintenance	-11.0333
▁numer	-11.0333
▁Protesters	-11.0333
▁much	-11.0333
▁rowboat	-11.0333
▁beginning	-11.0333
▁protection	-11.0334
▁stance	-11.0334
▁painter	-11.0334
▁backseat	-11.0334
▁screaming	-11.0338
▁contents	-11.0346
▁flowing	-11.0357
hose	-11.0363
▁incline	-11.0365
▁waterskiing	-11.0375
▁guide	-11.0377
▁scouts	-11.0406
▁desks	-11.0417
om	-11.044
▁clothed	-11.045
▁pipes	-11.0466
ok	-11.0475
▁complet	-11.0501
▁barricade	-11.051
▁plank	-11.0512
▁stretch	-11.0518
▁apples	-11.0525
▁acting	-11.0541
▁even	-11.0546
▁bounce	-11.0547
ts	-11.0551
▁press	-11.0555
▁entertains	-11.056
▁suck	-11.057
▁yo	-11.0572
cart	-11.0579
▁youths	-11.0582
tic	-11.0601
▁shoots	-11.0609
▁trucks	-11.0615
▁bicycling	-11.0619
▁clarinet	-11.0619
▁depict	-11.0619
▁fedora	-11.0619
▁grasp	-11.0619
▁juggles	-11.0619
▁knock	-11.0619
▁progress	-11.0619
▁treadmill	-11.0619
▁turkey	-11.0619
▁unhappy	-11.0619
▁unknown	-11.0619
▁wilderness	-11.0619
timate	-11.0619
▁pony	-11.0619
▁flood	-11.0619
▁reddish	-11.0619
▁Number	-11.0619
▁archway	-11.0619
▁fat	-11.0619
▁cave	-11.062
▁dragon	-11.062
ohn	-11.0621
▁last	-11.0621
▁goatee	-11.0622
▁fell	-11.0624
▁workout	-11.063
ty	-11.0635
▁warmly	-11.0636
▁speeds	-11.0669
▁exiting	-11.0669
▁Adults	-11.0673
▁stacked	-11.0683
▁seagulls	-11.0691
res	-11.0697
ew	-11.0703
ture	-11.0708
▁engage	-11.0714
ip	-11.0721
▁photographing	-11.0732
▁waiter	-11.0737
▁barefooted	-11.0746
▁upwards	-11.0756
▁pillars	-11.0775
▁kayaks	-11.0777
▁climbers	-11.08
▁feathers	-11.0803
▁split	-11.0806
▁column	-11.0808
▁jog	-11.0823
▁stunts	-11.083
▁Po	-11.085
G	-11.0864
field	-11.0864
▁hear	-11.0869
▁khakis	-11.0877
▁skaters	-11.0882
▁pillows	-11.0891
▁elder	-11.0909
▁special	-11.0909
▁America	-11.0909
▁accident	-11.0913
▁asphalt	-11.0913
▁cafeteria	-11.0913
▁clutter	-11.0913
▁shelter	-11.0913
▁social	-11.0913
▁vintage	-11.0913
▁wield	-11.0913
▁sparks	-11.0913
▁vegetation	-11.0913
▁Bald	-11.0913
▁convention	-11.0913
▁least	-11.0913
▁Time	-11.0913
▁waitress	-11.0913
▁hunche	-11.0913
▁metro	-11.0913
▁Muslim	-11.0913
▁sparring	-11.0913
▁propped	-11.0913
enga	-11.0914
▁Look	-11.0914
▁cries	-11.0914
▁picket	-11.0914
▁offering	-11.0915
▁swords	-11.0917
▁en	-11.0922
ell	-11.0924
▁dis	-11.0937
ries	-11.0946
▁purses	-11.0951
▁conducting	-11.0952
▁bowler	-11.0956
▁necklaces	-11.0964
▁toast	-11.0967
▁chips	-11.0969
▁wi	-11.097
sure	-11.0972
▁cigarettes	-11.0974
▁snowman	-11.0979
▁pie	-11.0982
▁whole	-11.1026
▁hurdles	-11.1028
▁say	-11.1042
son	-11.1042
erous	-11.1057
▁signing	-11.1073
▁task	-11.1108
▁bracelet	-11.1109
▁fist	-11.111
▁watermelon	-11.111
▁banana	-11.1111
▁wakeboard	-11.1133
▁thre	-11.1134
pard	-11.1165
▁Car	-11.1181
▁sip	-11.1183
waiting	-11.1183
▁sweat	-11.1191
▁classic	-11.1192
▁cruise	-11.1213
▁Miami	-11.1216
▁automobile	-11.1216
▁bookstore	-11.1216
▁canopy	-11.1216
▁caution	-11.1216
▁exercising	-11.1216
▁hammock	-11.1216
▁pacifier	-11.1216
▁pyramid	-11.1216
▁substance	-11.1216
▁uphill	-11.1216
▁nightclub	-11.1216
▁bodysuit	-11.1216
▁badminton	-11.1216
▁partner	-11.1216
▁saddle	-11.1216
▁spring	-11.1216
▁sundress	-11.1217
▁cattle	-11.1217
▁fog	-11.1217
▁illuminated	-11.1223
▁cycle	-11.1223
▁cell	-11.1223
▁completely	-11.1224
▁checkers	-11.1227
▁mixer	-11.1234
▁early	-11.1236
▁greenery	-11.1247
▁sipp	-11.1281
▁paws	-11.1282
▁tips	-11.1293
▁texting	-11.1305
bo	-11.1311
▁hips	-11.1318
▁Hu	-11.1322
rd	-11.1326
▁spar	-11.1342
tish	-11.1353
▁fold	-11.1385
▁belts	-11.1388
▁piles	-11.1394
te	-11.1394
▁nails	-11.1402
lin	-11.1434
▁th	-11.1445
▁hip	-11.1455
▁jockeys	-11.1466
uc	-11.1466
iz	-11.1475
cause	-11.1479
▁ribbons	-11.1489
▁Claus	-11.1492
ung	-11.1498
▁wip	-11.1506
▁attach	-11.1506
▁mur	-11.1522
▁quiet	-11.1524
▁potato	-11.1525
iff	-11.1528
pplies	-11.1528
▁dessert	-11.1528
▁Customer	-11.1528
▁Spanish	-11.1528
▁cheerleading	-11.1528
▁congregate	-11.1528
▁dolphin	-11.1528
▁elbow	-11.1528
▁excitement	-11.1528
▁facility	-11.1528
▁fireplace	-11.1528
▁harp	-11.1528
▁innertube	-11.1528
▁mascot	-11.1528
▁ornament	-11.1528
▁powder	-11.1528
▁trophy	-11.1528
▁visor	-11.1528
▁Snowboarder	-11.1528
▁buggy	-11.1528
▁bunny	-11.1528
▁Nike	-11.1529
▁deli	-11.1529
▁adolescent	-11.1529
▁collection	-11.1529
▁dribbles	-11.1531
▁soar	-11.1532
▁countryside	-11.1533
▁litter	-11.1533
▁ruins	-11.1534
▁bakery	-11.1535
▁waterfront	-11.1537
▁braided	-11.1542
▁fatigues	-11.1544
▁mounted	-11.1547
▁newly	-11.155
▁carrier	-11.1552
▁served	-11.1558
▁roadside	-11.1561
▁involved	-11.1567
▁steering	-11.1581
▁beams	-11.1624
▁vacuuming	-11.1632
coming	-11.1652
▁De	-11.1654
▁strap	-11.1669
▁travels	-11.1684
▁monitors	-11.1686
▁parka	-11.169
▁explor	-11.1694
▁ga	-11.1698
▁stair	-11.1747
▁m	-11.1759
ust	-11.1768
let	-11.1774
hand	-11.1775
▁stopp	-11.1781
▁War	-11.1787
▁doctors	-11.1793
▁la	-11.1795
K	-11.1802
jump	-11.1803
filled	-11.1803
▁strollers	-11.1808
▁lands	-11.1824
▁change	-11.1828
▁Bull	-11.1851
▁Friends	-11.1851
▁Walmart	-11.1851
▁circuit	-11.1851
▁lobby	-11.1851
▁megaphone	-11.1851
▁radio	-11.1851
▁recent	-11.1851
▁register	-11.1851
▁riverbank	-11.1851
▁terrier	-11.1851
▁weird	-11.1851
▁wool	-11.1851
▁wonder	-11.1851
▁Sooner	-11.1851
▁canyon	-11.1851
▁complex	-11.1851
▁accept	-11.1851
▁mime	-11.1851
▁cash	-11.1851
▁Num	-11.1852
▁inflated	-11.1852
▁sight	-11.1853
▁paintings	-11.1854
▁mist	-11.1855
▁soup	-11.1856
ex	-11.1857
▁headset	-11.1861
▁roadway	-11.1865
▁slam	-11.1867
pong	-11.1873
▁my	-11.1888
▁harvesting	-11.1905
▁leader	-11.1917
▁nearly	-11.1934
▁mixed	-11.194
▁washer	-11.1944
▁directing	-11.1945
▁flames	-11.1951
▁whe	-11.1962
▁finished	-11.1991
▁scratch	-11.1991
tan	-11.1993
▁sweaters	-11.1994
art	-11.2
▁ties	-11.2004
▁guid	-11.2004
▁se	-11.2012
▁spots	-11.2028
▁admire	-11.2049
▁ta	-11.2053
▁ordering	-11.2057
▁gardening	-11.206
▁bundle	-11.2069
▁monk	-11.2078
▁baton	-11.2081
▁horns	-11.2093
▁pre	-11.2098
▁Y	-11.21
▁retrieve	-11.2124
ba	-11.213
legged	-11.2135
finished	-11.2135
▁brid	-11.2147
▁squa	-11.2161
ft	-11.2172
▁turtle	-11.2184
▁Coca	-11.2184
▁Surfer	-11.2184
▁activities	-11.2184
▁boogie	-11.2184
▁bungee	-11.2184
▁carousel	-11.2184
▁easel	-11.2184
▁enclosed	-11.2184
▁lipstick	-11.2184
▁salon	-11.2184
▁sketch	-11.2184
▁vibrant	-11.2184
▁xylophone	-11.2184
▁kickboxing	-11.2184
▁major	-11.2184
▁veil	-11.2184
▁Scot	-11.2184
▁dried	-11.2184
▁foggy	-11.2184
▁bored	-11.2185
▁jack	-11.2185
▁flour	-11.2185
▁Rock	-11.2185
▁vary	-11.2185
▁attendant	-11.2185
▁peach	-11.2185
▁tracksuit	-11.2185
▁sunhat	-11.2186
▁tomatoes	-11.2186
▁soil	-11.2187
▁clothesline	-11.219
▁shines	-11.2192
ber	-11.2192
▁upset	-11.2197
▁may	-11.2205
▁wander	-11.2209
▁length	-11.2209
▁Player	-11.2218
▁sculpting	-11.2219
▁i	-11.2223
▁bridesmaids	-11.2226
otted	-11.2229
▁years	-11.224
ick	-11.2259
iv	-11.2265
▁navigate	-11.227
oo	-11.2271
▁award	-11.2276
▁stores	-11.2277
▁decide	-11.2278
▁motorbikes	-11.228
▁Bo	-11.2311
ened	-11.2317
▁sprays	-11.2358
ck	-11.2366
▁tiles	-11.2371
▁spin	-11.2377
▁operate	-11.2414
▁flame	-11.2448
eep	-11.2466
▁trains	-11.248
▁tap	-11.2488
▁La	-11.2498
hat	-11.2502
ier	-11.2522
▁grand	-11.2523
▁serious	-11.2525
▁stacks	-11.2528
▁wrist	-11.2529
▁border	-11.2529
▁breakfast	-11.2529
▁period	-11.2529
▁quad	-11.2529
▁robot	-11.2529
▁yawning	-11.2529
▁newlywed	-11.2529
▁smell	-11.2529
▁bowtie	-11.2529
▁slot	-11.2529
▁marsh	-11.2529
▁folk	-11.253
▁oil	-11.253
▁mitt	-11.253
▁synchroniz	-11.253
▁shelves	-11.253
▁wicke	-11.253
▁napping	-11.253
▁cabinet	-11.253
▁worn	-11.2531
▁mule	-11.2531
▁cityscape	-11.2532
▁torn	-11.2532
▁baked	-11.2534
▁dozen	-11.2534
▁redhead	-11.2535
▁twin	-11.2537
▁weight	-11.2541
azz	-11.2546
oven	-11.2557
▁ping	-11.2558
▁herd	-11.2559
▁flu	-11.2564
ci	-11.2564
▁explaining	-11.2565
▁shave	-11.2566
▁bell	-11.2566
▁folder	-11.2586
▁pant	-11.2597
▁braids	-11.2598
▁lanterns	-11.2598
▁crash	-11.2599
com	-11.2608
▁Asians	-11.2619
▁surfers	-11.2624
▁shaves	-11.2635
▁fle	-11.2661
yo	-11.2684
▁mar	-11.2688
▁nurses	-11.2704
▁blocked	-11.2721
▁sacks	-11.2723
capped	-11.2751
▁gaze	-11.2767
lt	-11.2771
▁o	-11.2776
▁sister	-11.2779
▁kimono	-11.2779
▁cookie	-11.2781
▁sprinklers	-11.2781
bu	-11.2783
▁materials	-11.2784
▁cable	-11.2784
▁bead	-11.2805
▁cheeks	-11.2807
▁Nin	-11.2809
▁vault	-11.2815
▁parasail	-11.2816
▁discuss	-11.2816
▁opened	-11.2823
ably	-11.2826
turned	-11.283
clad	-11.2837
box	-11.2838
five	-11.2842
sion	-11.2842
▁rails	-11.2843
▁hammering	-11.286
lar	-11.2861
▁Th	-11.2877
▁comfort	-11.288
▁port	-11.2881
▁dribbl	-11.2883
▁strolls	-11.2885
▁install	-11.2886
▁select	-11.2886
niversity	-11.2886
▁Beautiful	-11.2886
▁ambulance	-11.2886
▁diaper	-11.2886
▁gliding	-11.2886
▁parallel	-11.2886
▁piggyback	-11.2886
▁preparation	-11.2886
▁skydiving	-11.2886
▁sunbathing	-11.2886
▁mouse	-11.2886
▁seesaw	-11.2886
▁slicing	-11.2886
▁sponge	-11.2886
▁Dirt	-11.2886
▁barren	-11.2886
▁Elmo	-11.2886
▁trimming	-11.2886
▁maybe	-11.2886
▁review	-11.2886
▁pressure	-11.2887
▁utilit	-11.2887
▁Food	-11.2887
▁hoist	-11.2887
▁Park	-11.2887
▁message	-11.2887
▁crab	-11.2888
▁pickup	-11.289
▁violinist	-11.289
▁earth	-11.2891
▁goof	-11.2891
typing	-11.2891
▁prayer	-11.2894
▁Swimmer	-11.2895
▁canoes	-11.29
▁Mo	-11.2905
▁pa	-11.2906
lly	-11.2908
▁filmed	-11.2908
▁unit	-11.2908
▁leashes	-11.2911
▁height	-11.2911
▁nicely	-11.2911
▁angle	-11.2926
▁solder	-11.2928
▁picker	-11.2931
▁retriev	-11.2931
▁blower	-11.2944
▁parasailing	-11.2957
▁Cyclists	-11.2958
▁bo	-11.2961
▁opponents	-11.297
▁spins	-11.2998
▁monks	-11.3001
▁watermelons	-11.3013
rab	-11.3027
▁purchas	-11.3052
▁handles	-11.3077
ake	-11.3078
▁remov	-11.3084
▁hop	-11.3084
ak	-11.3132
▁Dr	-11.3146
▁clap	-11.3148
▁character	-11.3151
▁bagpipe	-11.3155
▁prop	-11.3164
▁burn	-11.3201
road	-11.3207
▁thought	-11.3214
▁sold	-11.3214
ama	-11.3221
wheeled	-11.3227
▁wand	-11.3231
▁reclin	-11.3231
▁fork	-11.3247
▁vertical	-11.3252
▁comb	-11.3256
▁cobble	-11.3257
▁Brunette	-11.3257
▁Dancers	-11.3257
▁Father	-11.3257
▁ancient	-11.3257
▁barbecuing	-11.3257
▁coveralls	-11.3257
▁handheld	-11.3257
▁overpass	-11.3257
▁political	-11.3257
▁resident	-11.3257
▁seafood	-11.3257
▁snowmobile	-11.3257
▁drift	-11.3257
▁league	-11.3257
▁elevated	-11.3257
▁smock	-11.3257
▁scattered	-11.3257
▁grain	-11.3257
▁wrapping	-11.3257
▁dropping	-11.3257
▁Ice	-11.3258
▁such	-11.3258
▁bows	-11.3258
rel	-11.3258
▁sex	-11.3258
▁cartoon	-11.3259
▁rollerblader	-11.3259
▁sc	-11.3263
▁acrobatic	-11.3267
▁similarly	-11.3268
▁let	-11.3268
▁patiently	-11.327
▁muzzled	-11.3271
▁bi	-11.3276
▁handlebars	-11.3279
▁page	-11.3285
▁barking	-11.329
▁stre	-11.3306
▁microscopes	-11.331
ign	-11.3332
▁descending	-11.3354
▁per	-11.3378
▁ha	-11.3379
▁You	-11.3383
old	-11.3425
▁film	-11.3441
▁banners	-11.3453
▁posed	-11.3467
oe	-11.3482
▁Mar	-11.3525
▁rose	-11.3537
▁foods	-11.3537
▁parent	-11.3549
▁kayaker	-11.3563
▁wh	-11.357
▁dolls	-11.3573
ga	-11.3579
▁Ba	-11.3586
what	-11.3596
▁struggl	-11.3603
▁bump	-11.3625
▁mats	-11.3637
▁Snow	-11.3641
▁High	-11.3641
▁Orange	-11.3641
▁Picture	-11.3641
▁abandoned	-11.3641
▁caricature	-11.3641
▁crazy	-11.3641
▁crib	-11.3641
▁destination	-11.3641
▁dishwasher	-11.3641
▁families	-11.3641
▁favor	-11.3641
▁floppy	-11.3641
▁fuzz	-11.3641
▁headgear	-11.3641
▁javelin	-11.3641
▁measuring	-11.3641
▁priest	-11.3641
▁quilt	-11.3641
▁relay	-11.3641
▁salad	-11.3641
▁schoolgirl	-11.3641
▁self	-11.3641
▁survey	-11.3641
▁sweatpants	-11.3641
▁campsite	-11.3641
▁scrap	-11.3641
▁angry	-11.3641
▁puff	-11.3641
▁spend	-11.3641
▁campus	-11.3642
▁distant	-11.3642
▁cling	-11.3643
▁ob	-11.3648
▁prob	-11.3648
▁checkout	-11.3648
▁overcoat	-11.3649
▁bun	-11.3651
▁harnesses	-11.3659
▁chased	-11.3667
ow	-11.3674
▁thinking	-11.3679
king	-11.3702
ump	-11.3706
▁citizens	-11.371
aking	-11.3714
▁buses	-11.3727
▁forms	-11.3737
ever	-11.3762
▁packages	-11.3789
▁grills	-11.3802
▁note	-11.3805
▁celebrates	-11.382
arm	-11.385
tation	-11.3852
▁pedal	-11.3863
▁exit	-11.3865
▁walker	-11.3867
▁gifts	-11.3876
unk	-11.3896
▁helmeted	-11.3903
▁need	-11.391
▁dots	-11.3917
▁sheer	-11.3925
▁cord	-11.3934
▁coconut	-11.3934
▁scout	-11.3936
▁lip	-11.3936
▁pigeon	-11.3937
▁Worker	-11.3941
ane	-11.3949
▁hung	-11.3972
▁str	-11.3978
▁Race	-11.3985
▁cr	-11.3986
▁parts	-11.4004
od	-11.4016
▁mount	-11.4018
ilitary	-11.4022
▁walked	-11.4027
▁mailbox	-11.4038
▁magnif	-11.4041
▁ceremoni	-11.4041
▁collie	-11.4041
▁cubicle	-11.4041
▁dilapidated	-11.4041
▁drain	-11.4041
▁enclosure	-11.4041
▁everywhere	-11.4041
▁halter	-11.4041
▁iPod	-11.4041
▁itself	-11.4041
▁tambourine	-11.4041
▁tulips	-11.4041
▁unseen	-11.4041
▁curious	-11.4041
▁muscle	-11.4041
▁vase	-11.4041
▁loose	-11.4041
▁technician	-11.4041
▁fleece	-11.4041
▁padded	-11.4041
▁kitten	-11.4042
▁hover	-11.4042
▁weave	-11.4042
▁markings	-11.4042
▁backstroke	-11.4042
▁mail	-11.4042
▁cannon	-11.4042
▁moon	-11.4043
▁apparently	-11.4043
▁railway	-11.4044
▁basement	-11.4047
▁cultural	-11.4048
▁somebody	-11.4052
▁excitedly	-11.4056
▁Sp	-11.4061
▁prize	-11.4061
wear	-11.4069
▁dyed	-11.4073
▁drying	-11.4075
▁guests	-11.4083
▁happening	-11.4083
▁barn	-11.4125
▁suite	-11.4127
▁tugg	-11.4133
▁stockings	-11.4144
▁pedals	-11.4149
▁cookies	-11.4165
▁concentrat	-11.4165
▁popp	-11.4168
per	-11.4194
▁remove	-11.4195
▁helped	-11.4206
▁led	-11.4212
▁whiteboard	-11.4228
time	-11.4241
ift	-11.4246
▁All	-11.4248
▁fountains	-11.4249
▁assist	-11.4278
▁steer	-11.4278
▁Bar	-11.4308
gar	-11.4311
▁await	-11.4329
ast	-11.4331
▁seagull	-11.4352
▁jug	-11.4356
▁pitching	-11.4367
▁fully	-11.4369
▁slip	-11.4378
room	-11.4385
▁harvest	-11.4388
▁learn	-11.4388
▁release	-11.4403
▁trainer	-11.4408
book	-11.441
▁stocking	-11.4413
wheeler	-11.4423
▁strings	-11.4425
some	-11.4426
▁ro	-11.4438
yro	-11.4444
▁address	-11.4446
▁puzzle	-11.4448
▁ca	-11.445
▁tip	-11.4454
▁Korea	-11.4458
▁Ladies	-11.4458
▁Marathon	-11.4458
▁Market	-11.4458
▁Yellow	-11.4458
▁concession	-11.4458
▁confetti	-11.4458
▁district	-11.4458
▁earmuffs	-11.4458
▁french	-11.4458
▁remote	-11.4458
▁storage	-11.4458
▁unison	-11.4458
▁windbreaker	-11.4458
▁zombie	-11.4458
▁paintbrush	-11.4458
▁teddy	-11.4458
▁talent	-11.4458
▁upright	-11.4458
▁Day	-11.4458
▁equestrian	-11.4458
▁leo	-11.4458
▁English	-11.4458
▁cashier	-11.4458
▁attraction	-11.4458
▁wheat	-11.4458
▁storm	-11.4458
▁heavyset	-11.4458
▁pail	-11.4459
▁selection	-11.4459
▁crest	-11.4459
▁lei	-11.4459
▁shack	-11.4459
▁Long	-11.446
▁floaties	-11.4465
▁know	-11.4467
▁feel	-11.447
▁Con	-11.4473
litary	-11.4478
▁Legos	-11.4478
▁Performer	-11.4484
▁Skier	-11.4484
▁armor	-11.4487
▁emerge	-11.4491
▁hooping	-11.4498
io	-11.4503
har	-11.451
▁sausages	-11.4519
nit	-11.4534
▁rabbits	-11.4538
ckey	-11.4546
▁hi	-11.4568
▁films	-11.4576
▁Lo	-11.4594
ental	-11.4617
▁pockets	-11.4621
▁collide	-11.463
▁ladders	-11.4638
bi	-11.4647
▁grip	-11.4657
▁So	-11.4662
▁tuxedos	-11.4662
▁curv	-11.4665
▁seeming	-11.4697
▁fir	-11.4711
rom	-11.4712
nd	-11.4712
▁best	-11.4724
▁violins	-11.4746
▁cause	-11.4754
▁cheers	-11.4783
▁defender	-11.4789
▁instruct	-11.4791
tle	-11.4796
house	-11.4807
▁screens	-11.4812
▁controls	-11.482
pped	-11.4827
back	-11.4842
made	-11.4843
▁lade	-11.4847
▁shed	-11.4847
▁singers	-11.4851
▁flash	-11.4852
▁heat	-11.4861
▁rub	-11.4865
▁sweatshirts	-11.4886
▁pain	-11.489
▁found	-11.4892
▁Cafe	-11.4893
▁French	-11.4893
▁Golden	-11.4893
▁Texas	-11.4893
▁architecture	-11.4893
▁cathedral	-11.4893
▁corridor	-11.4893
▁cushion	-11.4893
▁eager	-11.4893
▁exotic	-11.4893
▁hispanic	-11.4893
▁husband	-11.4893
▁intricate	-11.4893
▁liquor	-11.4893
▁metallic	-11.4893
▁operation	-11.4893
▁princess	-11.4893
▁ritual	-11.4893
▁snowstorm	-11.4893
▁spider	-11.4893
▁sweet	-11.4893
▁Outdoor	-11.4893
▁random	-11.4893
▁wristband	-11.4893
▁taste	-11.4893
phon	-11.4893
▁ankle	-11.4893
▁simultaneously	-11.4893
▁roping	-11.4893
▁hopping	-11.4893
▁strawberry	-11.4893
▁baking	-11.4893
▁arra	-11.4893
▁winning	-11.4894
▁bug	-11.4894
▁seeds	-11.4894
▁cabin	-11.4894
▁pub	-11.4894
▁solo	-11.4894
▁mallet	-11.4899
▁woodland	-11.49
▁cob	-11.49
earded	-11.4901
▁beaker	-11.4911
▁recline	-11.4914
▁curling	-11.4917
▁formally	-11.4918
▁Teenagers	-11.4919
▁stride	-11.4934
▁weeds	-11.4938
▁hauling	-11.4951
▁participants	-11.4952
trio	-11.4954
▁grins	-11.4976
▁poke	-11.4983
▁wakeboarding	-11.4995
▁cooked	-11.5
end	-11.501
▁took	-11.5021
▁pans	-11.5024
au	-11.5024
▁weights	-11.5029
▁snowboards	-11.503
scent	-11.5044
▁carried	-11.5046
low	-11.5056
mer	-11.5061
▁muzzles	-11.5077
▁captur	-11.5087
▁cats	-11.5087
llow	-11.5103
▁goats	-11.5126
rate	-11.5131
▁layer	-11.5139
itting	-11.5144
ement	-11.5157
▁Easter	-11.5189
▁concentrate	-11.5211
tuck	-11.5216
▁clos	-11.5227
▁downward	-11.5238
▁mark	-11.5239
▁jar	-11.5242
▁boot	-11.5242
▁fro	-11.526
▁rubb	-11.5263
▁rake	-11.5263
teen	-11.5296
dding	-11.5297
drawn	-11.5298
▁barrels	-11.5302
▁devices	-11.5303
▁handed	-11.5307
woman	-11.5315
▁stain	-11.5325
ond	-11.533
▁pok	-11.5342
▁Team	-11.5342
▁gig	-11.5343
▁tomato	-11.5344
▁Monopoly	-11.5347
▁Onlooker	-11.5347
▁Rollerblades	-11.5347
▁cardigan	-11.5347
▁culture	-11.5347
▁elegant	-11.5347
▁graphic	-11.5347
▁headscarves	-11.5347
▁lavender	-11.5347
▁marina	-11.5347
▁memorial	-11.5347
▁professor	-11.5347
▁respond	-11.5347
▁reveal	-11.5347
▁spandex	-11.5347
▁spatula	-11.5347
▁sunshine	-11.5347
▁silk	-11.5347
▁Arabic	-11.5347
▁dangerous	-11.5347
▁Amish	-11.5347
▁everyone	-11.5347
▁binder	-11.5347
▁combat	-11.5348
ssenger	-11.5348
▁submerged	-11.5348
▁SpongeBob	-11.5349
▁rubble	-11.5349
▁Work	-11.5349
▁vine	-11.5349
▁bone	-11.5349
▁meter	-11.5349
▁advertise	-11.535
▁fixture	-11.535
▁tongs	-11.535
▁cartwheel	-11.5351
▁lost	-11.5351
▁potatoes	-11.5352
▁businessmen	-11.5352
▁thing	-11.5353
hoppers	-11.5355
▁features	-11.5355
▁NY	-11.5357
▁obscured	-11.5359
▁zoo	-11.5359
▁welder	-11.536
▁Light	-11.536
▁waterski	-11.5362
▁teache	-11.5375
▁exchange	-11.5375
▁pierc	-11.5379
▁given	-11.5382
▁constructing	-11.5385
▁towed	-11.5391
▁skateboarders	-11.5397
▁hides	-11.5406
▁legged	-11.5416
▁assisting	-11.5426
▁island	-11.544
▁bust	-11.5444
bur	-11.5451
▁railings	-11.5491
▁Cars	-11.5509
▁phones	-11.5522
ipping	-11.5527
▁Ra	-11.554
▁seating	-11.5544
ches	-11.5554
the	-11.5585
▁closes	-11.5586
▁chains	-11.5593
▁sailboats	-11.5617
▁engag	-11.5626
▁defend	-11.5636
▁oncoming	-11.5659
▁Fan	-11.5667
▁write	-11.569
▁kneel	-11.5702
▁question	-11.5715
▁jogger	-11.5715
▁limb	-11.5716
▁sari	-11.5717
▁competitor	-11.5717
▁backward	-11.5719
wheel	-11.5732
ette	-11.5747
▁kites	-11.5748
▁stock	-11.5754
▁rounds	-11.5757
▁exercises	-11.5761
den	-11.5762
▁patrol	-11.5764
cut	-11.5766
ugh	-11.5769
▁chickens	-11.5772
paved	-11.5775
▁elephants	-11.5787
▁kinds	-11.5794
▁inline	-11.5794
▁br	-11.5819
▁sash	-11.582
▁Gentlem	-11.5822
▁du	-11.5823
▁technique	-11.5823
▁Disney	-11.5823
▁Motorcycle	-11.5823
▁Wall	-11.5823
▁apparatus	-11.5823
▁bongo	-11.5823
▁bronze	-11.5823
▁crystal	-11.5823
▁dentist	-11.5823
▁detail	-11.5823
▁ensemble	-11.5823
▁except	-11.5823
▁lollipop	-11.5823
▁merchant	-11.5823
▁procedure	-11.5823
▁resort	-11.5823
▁rooster	-11.5823
▁tightrope	-11.5823
▁unidentifi	-11.5823
▁waffle	-11.5823
▁Every	-11.5823
▁Gray	-11.5823
▁peel	-11.5823
▁tumbl	-11.5823
▁Mouse	-11.5823
▁janitor	-11.5823
▁rising	-11.5823
▁agility	-11.5823
▁ditch	-11.5823
▁answer	-11.5823
▁hairnet	-11.5823
▁mingle	-11.5823
▁vacation	-11.5823
▁steal	-11.5824
▁elementary	-11.5824
▁vast	-11.5824
▁crutches	-11.5824
▁escape	-11.5824
▁pulley	-11.5824
▁Apple	-11.5824
▁Speedo	-11.5824
▁gum	-11.5824
▁hour	-11.5825
▁exhibition	-11.5825
▁moss	-11.5826
▁wineglasses	-11.5826
▁tanned	-11.5827
▁Singer	-11.5827
▁retail	-11.5828
▁girlfriend	-11.5829
▁awe	-11.5829
▁language	-11.583
▁trap	-11.583
▁pastries	-11.5831
▁delivery	-11.5833
▁overcast	-11.5834
▁scope	-11.5834
▁manual	-11.5836
▁dome	-11.5839
▁artistic	-11.5843
▁chil	-11.5844
▁shit	-11.5846
▁stained	-11.5848
▁capri	-11.585
▁paw	-11.5861
aked	-11.5864
▁our	-11.5868
▁noodles	-11.5868
▁lettering	-11.5878
▁sling	-11.5885
▁symbols	-11.5915
▁competitors	-11.5931
▁putt	-11.595
▁toes	-11.5951
▁exits	-11.5953
▁positioned	-11.5957
▁el	-11.5973
▁surroundings	-11.5987
▁snaps	-11.5991
not	-11.5998
▁entertainer	-11.6026
▁tickets	-11.6027
▁pu	-11.6033
bb	-11.6057
striped	-11.6065
▁id	-11.6071
▁wheelchairs	-11.6077
▁snap	-11.609
ess	-11.6116
▁skill	-11.6129
▁ran	-11.6138
hoop	-11.6169
met	-11.6181
▁Pe	-11.6197
▁slab	-11.6214
▁pancake	-11.6215
▁bale	-11.6217
▁state	-11.6217
▁onlooker	-11.6219
ub	-11.6224
▁buttons	-11.6228
▁For	-11.623
▁rugs	-11.6237
▁docked	-11.6237
▁Br	-11.6245
▁greet	-11.6253
▁donkeys	-11.6253
body	-11.6261
high	-11.6267
▁Bicycle	-11.6268
off	-11.628
eyed	-11.629
▁expos	-11.6299
▁frolic	-11.6309
ively	-11.6309
▁health	-11.6311
▁Shop	-11.6315
▁horizontal	-11.6319
▁weigh	-11.632
▁peaceful	-11.6321
▁list	-11.6321
▁Europe	-11.6322
▁Pi	-11.6323
▁express	-11.6323
▁pursu	-11.6323
▁Boston	-11.6323
▁Great	-11.6323
▁Obama	-11.6323
▁Pizza	-11.6323
▁Professional	-11.6323
▁Water	-11.6323
▁apparel	-11.6323
▁captain	-11.6323
▁cemetery	-11.6323
▁cinder	-11.6323
▁confused	-11.6323
▁dangling	-11.6323
▁dominoes	-11.6323
▁juggler	-11.6323
▁loaf	-11.6323
▁pamphlet	-11.6323
▁scantily	-11.6323
▁Horse	-11.6323
▁beyond	-11.6323
▁access	-11.6323
▁article	-11.6323
▁chaps	-11.6323
▁contemplating	-11.6323
▁drunk	-11.6323
▁pinned	-11.6323
▁lumber	-11.6323
▁defensive	-11.6323
▁parachuting	-11.6323
▁turtleneck	-11.6323
▁pitbull	-11.6323
▁skipping	-11.6324
▁pride	-11.6324
▁Rug	-11.6324
▁nine	-11.6324
▁browse	-11.6324
▁starring	-11.6324
▁tunic	-11.6325
▁disk	-11.6325
▁knitted	-11.6325
▁swimwear	-11.6325
▁tagged	-11.6326
▁gain	-11.6326
▁skimp	-11.6327
▁stroke	-11.633
▁Star	-11.6332
▁baseman	-11.6335
▁interested	-11.6336
▁streamers	-11.6339
▁tightly	-11.634
▁ba	-11.635
▁lid	-11.6352
▁assembled	-11.6355
▁gloved	-11.6359
▁chang	-11.6359
▁ador	-11.6364
ddresses	-11.637
▁Go	-11.6377
▁hooked	-11.6379
▁tote	-11.638
▁non	-11.6386
potted	-11.6387
▁releas	-11.6389
▁brownish	-11.6393
▁sleds	-11.6395
▁Bicyclists	-11.6409
▁add	-11.6417
▁judges	-11.6419
▁rises	-11.642
▁sculptures	-11.6425
▁fighters	-11.6428
superman	-11.6434
▁decorate	-11.6441
▁awaits	-11.6454
ock	-11.6457
▁tubes	-11.6492
▁straps	-11.6494
▁Bus	-11.6502
ator	-11.6522
ride	-11.6522
▁guitarists	-11.6546
▁flo	-11.6556
▁fla	-11.6573
raw	-11.6574
▁explore	-11.6579
▁para	-11.6591
▁tin	-11.6609
▁tricycles	-11.6628
▁assembl	-11.6642
lung	-11.6645
▁fri	-11.6656
ware	-11.6694
iling	-11.6696
dot	-11.6706
▁braid	-11.6723
ose	-11.6733
▁dandelion	-11.6741
▁weapon	-11.6742
▁State	-11.6743
▁Cyclist	-11.6744
▁vi	-11.6755
▁gymnastic	-11.6755
▁wetsuits	-11.6767
▁lantern	-11.6769
▁protester	-11.6769
▁swa	-11.6773
▁kiddi	-11.6775
▁snorkel	-11.6778
▁conduct	-11.6779
▁haul	-11.678
▁dim	-11.6791
▁electronics	-11.6799
formal	-11.6801
fa	-11.6814
▁battl	-11.6833
▁plush	-11.6837
▁sprinkl	-11.6843
▁should	-11.6844
ese	-11.6846
▁mattress	-11.6847
▁Bike	-11.6848
▁promot	-11.6849
pipe	-11.685
▁France	-11.685
▁Greyhound	-11.685
▁Halloween	-11.685
▁Member	-11.685
▁Oklahoma	-11.685
▁artificial	-11.685
▁cluster	-11.685
▁cockpit	-11.685
▁cocktail	-11.685
▁conveyor	-11.685
▁cuddl	-11.685
▁earbuds	-11.685
▁fishermen	-11.685
▁gondola	-11.685
▁hurry	-11.685
▁important	-11.685
▁knives	-11.685
▁meditating	-11.685
▁pavilion	-11.685
▁salmon	-11.685
▁seaweed	-11.685
▁skeleton	-11.685
▁stairwell	-11.685
▁straddl	-11.685
▁Brazil	-11.685
▁Chef	-11.685
▁anvil	-11.685
▁worship	-11.685
▁breast	-11.685
▁Subway	-11.685
▁Local	-11.685
▁backhoe	-11.685
▁chubby	-11.685
▁patriotic	-11.685
▁popcorn	-11.685
▁powerpoint	-11.685
▁lesson	-11.685
▁index	-11.685
▁punk	-11.685
▁spill	-11.685
▁Out	-11.6851
attered	-11.6851
▁cutoff	-11.6851
▁fluore	-11.6851
▁comic	-11.6851
kart	-11.6851
▁Bride	-11.6851
▁mesh	-11.6851
▁bookbag	-11.6851
▁Well	-11.6851
▁currently	-11.6852
▁beans	-11.6852
▁rustic	-11.6853
▁Hell	-11.6853
▁movement	-11.6854
▁host	-11.6855
apan	-11.6855
▁brand	-11.6857
▁cylinder	-11.6857
▁bad	-11.6859
▁soaked	-11.686
esus	-11.6861
▁trays	-11.6863
▁reporter	-11.6864
▁better	-11.6864
▁ridge	-11.6865
▁glider	-11.687
▁streak	-11.6875
▁coal	-11.6876
▁donations	-11.6876
wis	-11.6879
▁partly	-11.6892
▁welds	-11.6894
▁goers	-11.6904
▁force	-11.6914
▁Big	-11.6914
▁delivering	-11.6917
▁appearing	-11.6931
stride	-11.6933
▁Bikers	-11.6935
▁samples	-11.6941
rew	-11.6943
▁struggles	-11.6956
▁wallet	-11.6966
▁saris	-11.6969
▁wipe	-11.6974
gle	-11.6987
▁kayakers	-11.701
▁cables	-11.7011
▁holes	-11.7019
ong	-11.7027
▁towels	-11.7038
▁rafts	-11.7044
▁lo	-11.7057
▁tutus	-11.7064
▁amused	-11.7071
▁Mr	-11.7074
▁saxophones	-11.708
▁climbed	-11.7097
▁shapes	-11.7101
unt	-11.7141
Y	-11.715
▁slopes	-11.7154
pt	-11.7173
▁wigs	-11.7189
▁San	-11.7189
mber	-11.7206
ood	-11.7209
▁provid	-11.7212
▁bowing	-11.7219
▁chip	-11.7234
▁parachutes	-11.7249
▁decorat	-11.7261
▁kilts	-11.7262
▁controll	-11.7276
earing	-11.729
▁sl	-11.729
▁grin	-11.7293
▁symbol	-11.7299
▁rabbit	-11.7299
▁oar	-11.7299
▁Adult	-11.73
▁gowns	-11.731
▁sum	-11.7314
▁rise	-11.7314
gy	-11.7323
▁deliver	-11.7323
sque	-11.7329
paint	-11.7333
▁glow	-11.7335
▁dunes	-11.734
▁struggle	-11.735
▁pairs	-11.735
▁suitcases	-11.7353
Cola	-11.7355
free	-11.7357
blue	-11.7357
head	-11.736
▁emerg	-11.736
deep	-11.7373
painted	-11.738
imm	-11.7383
▁baker	-11.7398
rumming	-11.74
▁wineglass	-11.7402
log	-11.7405
▁Sun	-11.7405
▁College	-11.7405
▁Tennis	-11.7405
▁Washington	-11.7405
▁Yankee	-11.7405
▁brochure	-11.7405
▁contact	-11.7405
▁emotion	-11.7405
▁ferry	-11.7405
▁geese	-11.7405
▁graduate	-11.7405
▁handkerchief	-11.7405
▁headfirst	-11.7405
▁interior	-11.7405
▁kettle	-11.7405
▁lizard	-11.7405
▁mascara	-11.7405
▁minivan	-11.7405
▁monster	-11.7405
▁overhang	-11.7405
▁rehearsing	-11.7405
▁scruffy	-11.7405
▁seashore	-11.7405
▁snowbank	-11.7405
▁trombone	-11.7405
▁zebra	-11.7405
chief	-11.7405
▁loud	-11.7405
▁wreck	-11.7405
▁Walk	-11.7405
▁tether	-11.7405
▁continue	-11.7405
▁platter	-11.7405
▁ripped	-11.7405
▁ginger	-11.7405
▁joke	-11.7405
▁vocalist	-11.7405
▁strain	-11.7406
▁scary	-11.7406
▁junk	-11.7406
▁thread	-11.7406
▁chart	-11.7406
▁studies	-11.7406
▁strong	-11.7406
▁skillet	-11.7406
▁contestant	-11.7406
agle	-11.7407
ank	-11.7408
▁slowly	-11.7408
▁damaged	-11.7409
▁scared	-11.7409
▁occupied	-11.741
▁tram	-11.7411
lack	-11.7413
▁butter	-11.7415
▁Deer	-11.7416
▁Ford	-11.7416
▁playhouse	-11.7417
▁blindfolded	-11.742
dded	-11.742
▁dye	-11.7424
▁gay	-11.7426
▁billiards	-11.7427
▁wakeboarder	-11.7428
▁fourth	-11.743
▁grown	-11.7431
▁magic	-11.7442
▁prevent	-11.747
▁keys	-11.7476
▁tun	-11.7482
▁styled	-11.7484
▁greeting	-11.7485
cy	-11.7488
▁brooms	-11.7488
▁washed	-11.7503
▁hamburgers	-11.7507
▁eyed	-11.753
▁winds	-11.7531
▁limbs	-11.7532
▁frames	-11.7539
▁squeez	-11.755
▁judge	-11.7562
▁presse	-11.7569
orm	-11.7573
▁kimonos	-11.7576
▁assemble	-11.758
▁bats	-11.7585
tro	-11.7585
▁footballer	-11.76
ease	-11.7616
cat	-11.7625
▁Ga	-11.7628
▁garments	-11.7632
▁seal	-11.7638
▁McDonalds	-11.7638
hi	-11.7643
▁raining	-11.7671
▁secur	-11.7688
▁maker	-11.7698
▁cann	-11.7707
▁leotards	-11.7752
▁owners	-11.7758
mic	-11.7758
▁huts	-11.7771
our	-11.7796
▁sorts	-11.7797
▁bandage	-11.781
cola	-11.7816
ory	-11.7825
scending	-11.7832
▁starts	-11.7855
▁undershirt	-11.7861
▁records	-11.7881
▁buys	-11.7884
▁blossom	-11.7885
▁surgeon	-11.7886
▁hamburger	-11.7886
▁slice	-11.7887
▁citizen	-11.7887
light	-11.7889
▁earring	-11.789
uit	-11.7894
▁coverings	-11.7898
▁barriers	-11.79
olic	-11.7915
▁cloths	-11.7922
▁season	-11.7923
▁videotap	-11.793
ground	-11.7934
▁darker	-11.7935
lock	-11.7944
foam	-11.7944
The	-11.7945
type	-11.7945
▁fighter	-11.7946
them	-11.7947
stand	-11.7949
▁dip	-11.7951
▁mops	-11.7953
▁kit	-11.7955
imp	-11.7959
▁lamps	-11.7971
▁conveni	-11.7975
▁trek	-11.7978
▁bears	-11.7986
▁count	-11.7986
▁glide	-11.7988
▁broad	-11.799
▁Teen	-11.7993
▁Photo	-11.7993
▁Eleven	-11.7993
▁Israel	-11.7993
▁Italian	-11.7993
▁alligator	-11.7993
▁arrive	-11.7993
▁blowtorch	-11.7993
▁breakdancer	-11.7993
▁carpenter	-11.7993
▁clipboard	-11.7993
▁convertible	-11.7993
▁crochet	-11.7993
▁frowning	-11.7993
▁gallop	-11.7993
▁grandmother	-11.7993
▁hopscotch	-11.7993
▁jackhammer	-11.7993
▁lamb	-11.7993
▁locomotive	-11.7993
▁maintain	-11.7993
▁manipulat	-11.7993
▁ollie	-11.7993
▁penguin	-11.7993
▁pregnant	-11.7993
▁rappel	-11.7993
▁remain	-11.7993
▁sauna	-11.7993
▁sleigh	-11.7993
▁stethoscope	-11.7993
▁preserve	-11.7994
▁playpen	-11.7994
▁windsurfer	-11.7994
▁final	-11.7994
▁insect	-11.7994
▁confront	-11.7994
▁newsstand	-11.7994
▁winner	-11.7994
▁nothing	-11.7994
▁arrangement	-11.7994
▁swamp	-11.7994
▁Buddhist	-11.7994
▁chunk	-11.7994
▁determined	-11.7994
▁send	-11.7994
▁might	-11.7994
▁eagle	-11.7994
▁portion	-11.7995
▁stoplight	-11.7995
MA	-11.7995
▁entertainment	-11.7996
rong	-11.7998
▁Happy	-11.7998
▁Seattle	-11.7998
▁defense	-11.7998
▁trot	-11.7999
▁national	-11.7999
▁punches	-11.8001
▁Ten	-11.8004
▁Cat	-11.8005
▁Colorful	-11.8006
iew	-11.8007
▁No	-11.8008
▁Photographer	-11.801
▁trousers	-11.801
▁pastry	-11.8016
▁Starbucks	-11.8017
▁woodworking	-11.8022
▁drumsticks	-11.8023
▁pretzels	-11.8023
▁greenhouse	-11.8026
▁soaking	-11.8027
▁Sports	-11.803
▁pastel	-11.8031
▁hairstyle	-11.8031
▁bagel	-11.8032
▁shouting	-11.8035
▁Hikers	-11.8036
▁plum	-11.8037
▁focuse	-11.8039
▁boa	-11.8042
▁ka	-11.8045
▁arched	-11.8054
▁butt	-11.8059
▁olympics	-11.8062
▁patrons	-11.8063
▁classical	-11.8067
▁noses	-11.8067
▁backpacker	-11.8072
▁shined	-11.8095
▁oars	-11.8108
que	-11.8114
▁fairy	-11.8122
▁sm	-11.8123
▁vaulting	-11.8124
▁rakes	-11.8135
itty	-11.8158
rin	-11.8183
▁lanes	-11.8195
▁bracelets	-11.8208
ised	-11.8225
▁guides	-11.823
vin	-11.8233
▁poodles	-11.8241
▁nud	-11.8244
▁pinstripe	-11.8248
aw	-11.8255
▁sails	-11.8257
▁shields	-11.8268
▁projected	-11.828
▁stools	-11.8295
▁fed	-11.8314
▁fu	-11.832
▁crop	-11.8321
▁professionals	-11.8322
▁meats	-11.8325
tri	-11.8326
tch	-11.8357
ler	-11.8393
▁bins	-11.8396
ims	-11.8403
▁Multi	-11.8408
▁Or	-11.8409
▁strips	-11.8412
▁letter	-11.8447
▁obstacles	-11.8471
ark	-11.8483
▁Bicyclist	-11.8512
▁year	-11.8513
▁decoration	-11.8514
▁sample	-11.8522
▁dart	-11.8524
ike	-11.8542
bar	-11.8545
set	-11.8553
▁sauce	-11.8555
▁study	-11.8558
play	-11.856
ou	-11.8561
ude	-11.8562
▁labor	-11.8568
each	-11.8571
▁ends	-11.8574
▁Ho	-11.8576
▁skip	-11.858
▁orders	-11.8586
print	-11.8595
▁Latin	-11.8615
▁glanc	-11.8615
▁Teenage	-11.8616
▁blank	-11.8618
▁quarter	-11.8618
▁Patrick	-11.8618
▁Chicago	-11.8618
▁Concert	-11.8618
▁Nintendo	-11.8618
▁Segway	-11.8618
▁adjacent	-11.8618
▁banquet	-11.8618
▁bonfire	-11.8618
▁bonnet	-11.8618
▁congregating	-11.8618
▁cowgirl	-11.8618
▁entire	-11.8618
▁exterior	-11.8618
▁footbridge	-11.8618
▁function	-11.8618
▁gorilla	-11.8618
▁llama	-11.8618
▁metropoli	-11.8618
▁mushroom	-11.8618
▁perfect	-11.8618
▁physical	-11.8618
▁problem	-11.8618
▁region	-11.8618
▁saluting	-11.8618
▁satchel	-11.8618
▁shoeshine	-11.8618
▁shrubbery	-11.8618
▁squinting	-11.8618
▁vessel	-11.8618
▁workbench	-11.8618
▁instructions	-11.8619
▁limo	-11.8619
▁parasol	-11.8619
▁rectang	-11.8619
spectacle	-11.8619
▁price	-11.8619
▁anchor	-11.8619
▁sews	-11.8619
▁California	-11.8619
▁scoring	-11.8619
▁breed	-11.8619
▁flashlight	-11.8619
▁possible	-11.8619
▁volunteer	-11.8619
▁root	-11.8619
▁hidden	-11.8619
▁blade	-11.8619
▁grinning	-11.8619
▁petals	-11.8619
mble	-11.8619
▁tribe	-11.8619
▁Spiderman	-11.8619
▁sift	-11.8619
▁wok	-11.8619
▁warning	-11.862
▁Music	-11.862
▁spout	-11.862
endors	-11.862
udio	-11.862
▁procession	-11.8621
▁protector	-11.8621
▁windowsill	-11.8622
▁Wii	-11.8622
▁stationary	-11.8623
▁Artist	-11.8624
mming	-11.8626
▁poker	-11.8629
▁torches	-11.863
▁shrubs	-11.8636
▁constructed	-11.8636
▁hawk	-11.864
▁workmen	-11.8645
oh	-11.8648
vo	-11.8649
▁shingles	-11.865
ould	-11.865
▁east	-11.8658
▁fine	-11.8669
▁chops	-11.8671
▁travelers	-11.8675
▁lung	-11.8681
▁burgers	-11.8685
▁glowing	-11.8699
▁wal	-11.87
▁Nav	-11.8711
▁skyscrapers	-11.8713
▁gated	-11.8716
▁matches	-11.8717
▁supported	-11.8717
▁tear	-11.8729
▁mixe	-11.8746
▁fiddle	-11.8746
gent	-11.8747
▁landed	-11.8753
▁circles	-11.8761
▁pav	-11.8763
▁coconuts	-11.8791
▁sisters	-11.8812
▁mean	-11.8819
▁sticker	-11.8823
▁splits	-11.8855
▁canoeing	-11.8862
▁rocker	-11.8877
▁bounces	-11.8878
▁seeing	-11.888
▁peaks	-11.8883
▁ja	-11.8894
▁Pre	-11.8894
my	-11.8896
▁hoe	-11.8898
▁Mor	-11.8922
▁brothers	-11.8941
long	-11.895
▁hu	-11.9012
▁wit	-11.9014
▁Over	-11.9016
▁bicycler	-11.9046
▁comp	-11.906
▁Cr	-11.9101
▁pump	-11.9105
oon	-11.9106
▁ju	-11.9152
▁medal	-11.9178
▁Tourist	-11.9181
▁pajama	-11.9181
▁crayon	-11.9181
▁Biker	-11.9181
▁fi	-11.9182
▁spik	-11.9188
ern	-11.9197
▁pray	-11.9201
▁sculpt	-11.9214
▁happen	-11.9215
▁explain	-11.9215
▁once	-11.9222
circle	-11.9225
water	-11.9231
▁squir	-11.9232
▁drawings	-11.9232
band	-11.9234
nna	-11.9234
length	-11.9236
bread	-11.9236
screen	-11.9237
wall	-11.9239
ador	-11.9241
▁enthusiastic	-11.9243
elve	-11.9247
▁taxis	-11.9247
▁banks	-11.9255
▁East	-11.9269
swing	-11.9277
but	-11.9279
▁potter	-11.9279
▁proud	-11.9281
▁acrobat	-11.9283
assengers	-11.9285
▁master	-11.9285
KitchenAid	-11.9285
▁Gymnast	-11.9285
▁World	-11.9285
▁beanbag	-11.9285
▁blacksmith	-11.9285
▁cereal	-11.9285
▁chemical	-11.9285
▁circus	-11.9285
▁consult	-11.9285
▁crocodile	-11.9285
▁diamond	-11.9285
▁drenche	-11.9285
▁embroider	-11.9285
▁hijab	-11.9285
▁marriage	-11.9285
▁replac	-11.9285
▁slender	-11.9285
▁somersault	-11.9285
▁spiral	-11.9285
▁sprawl	-11.9285
▁typewriter	-11.9285
▁warrior	-11.9285
▁windsurfing	-11.9285
▁wizard	-11.9285
▁queen	-11.9285
▁university	-11.9285
ietnam	-11.9285
▁mittens	-11.9285
▁carrot	-11.9285
▁machete	-11.9285
▁shrine	-11.9285
▁hippie	-11.9285
▁cube	-11.9285
▁profile	-11.9285
▁bloom	-11.9285
▁passerby	-11.9285
▁tide	-11.9285
▁suds	-11.9285
▁growing	-11.9285
▁yet	-11.9285
▁gazebo	-11.9285
▁shutter	-11.9285
▁recreation	-11.9285
▁begging	-11.9286
▁route	-11.9286
▁Road	-11.9286
▁dollhouse	-11.9286
▁What	-11.9286
▁necktie	-11.9286
▁coke	-11.9286
▁pew	-11.9287
▁onesie	-11.9287
BA	-11.9287
▁bunk	-11.9287
▁teeter	-11.9289
▁attentively	-11.9289
▁Art	-11.9289
▁won	-11.9289
▁brave	-11.9289
▁spear	-11.9289
▁proudly	-11.929
▁watercraft	-11.929
▁populate	-11.929
▁homework	-11.9291
▁dorm	-11.9292
rash	-11.9293
▁curled	-11.9298
▁marches	-11.9298
escent	-11.9299
▁rig	-11.93
▁assembly	-11.9301
▁tilted	-11.9302
▁trimmed	-11.9309
▁batt	-11.9311
▁sweaty	-11.9312
▁blown	-11.9314
▁bill	-11.9315
heeled	-11.9316
▁deal	-11.9317
▁backlit	-11.9319
▁conditions	-11.9319
▁fencers	-11.9324
enthusiastically	-11.9329
▁Rider	-11.9331
▁handful	-11.9333
ax	-11.9343
▁era	-11.9344
▁interviewed	-11.9345
▁traverse	-11.9357
uff	-11.9362
▁youngsters	-11.9372
▁sprints	-11.938
▁bangs	-11.9386
▁cupcakes	-11.9386
▁Not	-11.9387
▁defending	-11.9388
▁medals	-11.9394
▁To	-11.9402
▁pedaling	-11.9408
▁slices	-11.9409
▁surgeons	-11.9409
▁relaxed	-11.9428
▁states	-11.9432
▁bales	-11.9432
▁due	-11.9452
▁protecting	-11.9477
tress	-11.9478
LE	-11.9485
▁attired	-11.949
col	-11.9504
handed	-11.9519
▁fists	-11.9531
▁tasks	-11.9531
cal	-11.954
enta	-11.9543
ron	-11.9547
▁chested	-11.9573
▁hammers	-11.9578
▁curtains	-11.96
▁purchases	-11.9601
▁supporting	-11.9604
oney	-11.9607
▁drags	-11.9608
cc	-11.961
▁save	-11.9616
▁pirates	-11.9623
▁walkers	-11.9645
▁crowns	-11.9685
▁expressions	-11.9731
▁fashionabl	-11.975
▁fo	-11.9753
rest	-11.9783
wards	-11.9785
Ex	-11.9805
▁squeeze	-11.9814
skier	-11.9819
ible	-11.9868
owing	-11.9878
▁troop	-11.9892
▁skyscraper	-11.9892
▁bang	-11.9893
▁cupcake	-11.9893
▁performed	-11.9893
▁sausage	-11.9893
▁spa	-11.9906
▁camper	-11.991
other	-11.991
▁size	-11.9913
ished	-11.9927
▁roast	-11.9928
▁miss	-11.9931
▁think	-11.9933
bike	-11.9953
lift	-11.9953
corn	-11.996
▁clasp	-11.9975
▁hearts	-11.9975
▁trade	-11.9987
solate	-11.999
▁sunbathe	-11.9999
▁trans	-11.9999
▁percussion	-11.9999
enaissance	-11.9999
▁every	-11.9999
▁blur	-11.9999
Shirt	-11.9999
▁charcoal	-11.9999
▁pearl	-11.9999
▁poverty	-11.9999
▁specimen	-11.9999
▁trouble	-11.9999
ternational	-11.9999
▁Barefoot	-11.9999
▁Doctor	-11.9999
▁Individual	-11.9999
▁balconies	-11.9999
▁bazaar	-11.9999
▁breakdances	-11.9999
▁clerk	-11.9999
▁coca	-11.9999
▁console	-11.9999
▁diligently	-11.9999
▁dispos	-11.9999
▁gambling	-11.9999
▁geometric	-11.9999
▁glacier	-11.9999
▁growling	-11.9999
▁monopoly	-11.9999
▁ninja	-11.9999
▁normal	-11.9999
▁nuts	-11.9999
▁parlor	-11.9999
▁pebbl	-11.9999
▁peddling	-11.9999
▁plugg	-11.9999
▁presumably	-11.9999
▁quite	-11.9999
▁ravine	-11.9999
▁sushi	-11.9999
▁temporary	-11.9999
▁tiara	-11.9999
didas	-11.9999
▁mingling	-11.9999
▁strums	-11.9999
▁tussl	-11.9999
▁hurt	-11.9999
▁textile	-11.9999
▁vivid	-11.9999
▁smash	-12
▁forefront	-12
▁outcropping	-12
▁sequin	-12
▁energ	-12
▁actors	-12
▁joust	-12
▁forklift	-12
Irish	-12
▁horseshoe	-12
▁hundred	-12
▁mustard	-12
▁Home	-12
▁peruse	-12
▁bathrobe	-12
▁tucked	-12
▁beaut	-12
▁pound	-12
▁manicure	-12
▁situation	-12
▁Renaissance	-12
▁trotting	-12
▁assistance	-12
▁doorstep	-12
▁foil	-12
▁lifeguard	-12
▁sculptor	-12.0001
▁Beach	-12.0001
▁Bank	-12.0001
▁Youth	-12.0001
ik	-12.0001
▁aircraft	-12.0002
ility	-12.0002
▁lovers	-12.0002
▁halfway	-12.0003
▁eatery	-12.0003
▁creation	-12.0003
▁glances	-12.0003
▁dollar	-12.0003
▁paintball	-12.0004
▁cutout	-12.0005
▁horizontally	-12.0006
▁Back	-12.0006
▁daylight	-12.0007
bed	-12.0009
▁quietly	-12.001
▁headdresses	-12.001
▁sandwiches	-12.0016
▁oddly	-12.0016
▁dreads	-12.0028
▁coral	-12.0031
▁Fisherm	-12.0034
▁Tan	-12.0041
▁playful	-12.0042
▁pensive	-12.0049
ets	-12.005
▁roasting	-12.0071
▁grate	-12.0074
▁videotape	-12.0078
▁seek	-12.0083
▁Clause	-12.0084
▁donuts	-12.0084
▁romantic	-12.0088
▁naps	-12.0089
▁gla	-12.009
▁troops	-12.0109
▁couches	-12.011
▁gi	-12.0114
▁darts	-12.0125
▁States	-12.0149
▁weapons	-12.0149
▁drawer	-12.0153
▁barb	-12.0174
▁manhole	-12.0177
▁taller	-12.018
ked	-12.0181
▁defenders	-12.0184
▁picked	-12.0188
▁needs	-12.0197
▁cords	-12.0198
▁matur	-12.0224
▁cleaned	-12.023
▁waterside	-12.0265
▁cheerful	-12.0272
▁planks	-12.0281
▁boulders	-12.0289
▁Gr	-12.0292
▁calling	-12.0299
▁higher	-12.0312
▁blackboard	-12.0321
▁spikes	-12.0324
door	-12.0326
mate	-12.0344
▁speakers	-12.037
era	-12.0374
▁Ta	-12.0394
ative	-12.0399
▁angels	-12.0422
ountain	-12.0428
▁scratche	-12.0435
▁sole	-12.0477
walk	-12.0477
▁flee	-12.048
▁Mu	-12.0486
▁lace	-12.0488
▁hol	-12.0513
▁sav	-12.0534
hole	-12.0548
▁decid	-12.0552
▁Summ	-12.0557
ddy	-12.0561
▁navigat	-12.0568
Love	-12.0589
▁sprint	-12.0589
▁super	-12.0598
▁notice	-12.0622
▁wav	-12.0623
▁En	-12.0651
ley	-12.0654
▁sombrero	-12.0659
▁bl	-12.066
▁participant	-12.0662
▁badge	-12.0663
▁leave	-12.0665
uffe	-12.0678
nder	-12.0692
▁Tri	-12.0694
▁sideline	-12.0696
cast	-12.0704
ook	-12.0705
cross	-12.071
vation	-12.071
bout	-12.0716
pensive	-12.0718
boat	-12.0719
chested	-12.0719
american	-12.072
view	-12.072
race	-12.0723
vest	-12.0733
▁multicolor	-12.0746
▁sparkl	-12.075
eye	-12.0751
▁bake	-12.0755
ka	-12.0758
▁custom	-12.0762
▁nation	-12.0763
▁attentive	-12.0764
▁quick	-12.0764
▁slow	-12.0766
mergency	-12.0768
▁Spider	-12.0768
▁expans	-12.0768
▁measure	-12.0768
stead	-12.0769
▁bulb	-12.0769
▁gorge	-12.0769
▁impress	-12.0769
Welcome	-12.0769
▁Angeles	-12.0769
▁Giant	-12.0769
▁Rodeo	-12.0769
▁Roller	-12.0769
▁Thai	-12.0769
▁Train	-12.0769
▁abstract	-12.0769
▁album	-12.0769
▁aluminum	-12.0769
▁amplifier	-12.0769
▁backflip	-12.0769
▁blind	-12.0769
▁breeze	-12.0769
▁chemistry	-12.0769
▁communicating	-12.0769
▁dustpan	-12.0769
▁fierce	-12.0769
▁knight	-12.0769
▁lobster	-12.0769
▁loiter	-12.0769
▁marshmallow	-12.0769
▁napkin	-12.0769
▁occasion	-12.0769
▁peanut	-12.0769
▁pelican	-12.0769
▁plywood	-12.0769
▁popsicle	-12.0769
▁quartet	-12.0769
▁recipe	-12.0769
▁shotgun	-12.0769
▁skewer	-12.0769
▁sledgehammer	-12.0769
▁technology	-12.0769
▁tissue	-12.0769
▁troupe	-12.0769
▁Monk	-12.0769
▁consum	-12.0769
▁coworker	-12.0769
▁everything	-12.0769
▁potential	-12.0769
▁ruffle	-12.0769
▁socialize	-12.0769
▁Super	-12.0769
▁basin	-12.0769
▁loving	-12.0769
▁gently	-12.0769
▁handicapped	-12.0769
▁simpl	-12.0769
▁stylish	-12.0769
▁arrest	-12.0769
▁enforc	-12.0769
▁western	-12.0769
▁landmark	-12.0769
▁Christian	-12.0769
▁thatched	-12.0769
▁Game	-12.0769
▁bury	-12.0769
▁Boat	-12.0769
▁velvet	-12.0769
▁assistant	-12.0769
▁foundation	-12.0769
▁romp	-12.0769
▁Bright	-12.0769
▁melt	-12.077
▁Good	-12.077
▁spell	-12.077
▁Coke	-12.077
▁creature	-12.077
▁piercings	-12.077
▁fliers	-12.077
▁baggage	-12.077
▁fam	-12.077
▁Marti	-12.077
▁Cook	-12.077
Free	-12.0771
▁cue	-12.0771
▁BMW	-12.0771
▁Tour	-12.0771
▁smear	-12.0771
▁sub	-12.0772
▁demolish	-12.0772
▁lunges	-12.0773
▁Mom	-12.0773
▁web	-12.0774
▁coin	-12.0775
▁ballgame	-12.0775
▁mad	-12.0776
▁husky	-12.0777
▁projection	-12.0778
▁mountaineer	-12.0779
▁rim	-12.078
▁sparkly	-12.0781
▁runway	-12.0782
▁spiky	-12.0783
▁patches	-12.0787
omas	-12.0788
▁hunting	-12.08
▁roadwork	-12.0801
▁idea	-12.0804
▁bullet	-12.0804
▁Scouts	-12.0808
▁ox	-12.0809
▁Ski	-12.0815
▁professionally	-12.0819
▁Met	-12.082
▁lonely	-12.0826
▁sprinting	-12.0842
▁Cola	-12.0842
ute	-12.0842
▁workman	-12.0843
▁stoo	-12.0845
▁dolly	-12.0846
dem	-12.0861
▁rocket	-12.0863
stone	-12.0863
▁crush	-12.0868
▁lett	-12.0869
▁sparklers	-12.0871
▁discover	-12.088
▁fil	-12.0884
▁Tw	-12.0891
▁pumps	-12.0897
▁greenish	-12.0897
▁flashing	-12.0898
pad	-12.0905
▁beater	-12.0906
▁sta	-12.0908
▁blossoms	-12.0913
neck	-12.093
▁pancakes	-12.094
▁joggers	-12.0949
tie	-12.0956
▁jars	-12.0958
▁photography	-12.096
▁die	-12.0978
▁acrobatics	-12.1002
▁claps	-12.1002
▁bundles	-12.103
▁batons	-12.1032
▁flow	-12.1035
CE	-12.1043
▁wor	-12.1047
▁pea	-12.1054
▁finishe	-12.1072
ken	-12.1122
▁texts	-12.113
▁los	-12.1167
▁treats	-12.1173
▁embe	-12.118
▁secure	-12.1186
▁busk	-12.1187
▁mannequins	-12.1202
▁holder	-12.1209
▁roped	-12.1239
oyal	-12.1263
ecker	-12.1283
cious	-12.1288
▁plan	-12.1337
taught	-12.1371
ottery	-12.1385
▁whip	-12.1387
▁pl	-12.1414
▁cong	-12.1427
▁je	-12.1429
▁Lea	-12.1435
tem	-12.1444
▁bark	-12.1459
▁flor	-12.147
▁civilian	-12.1493
▁hedge	-12.1493
▁key	-12.1495
▁bridesmaid	-12.1496
▁sparkler	-12.1499
▁sock	-12.15
▁youngster	-12.1501
▁crouch	-12.1506
▁construct	-12.1507
▁fre	-12.1518
east	-12.1521
▁twist	-12.1526
▁streetlight	-12.1546
▁prim	-12.1554
ship	-12.1555
story	-12.1556
▁mag	-12.1561
Do	-12.1564
dyed	-12.1565
goers	-12.1568
boy	-12.1578
▁stud	-12.1586
▁surprise	-12.1592
▁solid	-12.1597
▁Farm	-12.1597
▁safe	-12.1597
▁charg	-12.1597
aid	-12.16
▁enthusiast	-12.1601
▁refresh	-12.1601
▁Berlin	-12.1602
▁choreograph	-12.1602
▁dispens	-12.1602
▁smirk	-12.1602
▁suspens	-12.1602
▁york	-12.1602
pproximate	-12.1602
▁Autumn	-12.1602
▁Batman	-12.1602
▁Britain	-12.1602
▁Clown	-12.1602
▁Flag	-12.1602
▁Garden	-12.1602
▁Motorcyclist	-12.1602
▁Museum	-12.1602
▁Newlywed	-12.1602
▁Ocean	-12.1602
▁Pokemon	-12.1602
▁Senior	-12.1602
▁Target	-12.1602
▁amazement	-12.1602
▁amazing	-12.1602
▁applied	-12.1602
▁author	-12.1602
▁bulldog	-12.1602
▁ceramic	-12.1602
▁cleats	-12.1602
▁cloak	-12.1602
▁congregation	-12.1602
▁creme	-12.1602
▁doberman	-12.1602
▁dummy	-12.1602
▁graz	-12.1602
▁honor	-12.1602
▁kept	-12.1602
▁operator	-12.1602
▁peddle	-12.1602
▁pompoms	-12.1602
▁prominent	-12.1602
▁rainstorm	-12.1602
▁rival	-12.1602
▁session	-12.1602
▁shaft	-12.1602
▁sibling	-12.1602
▁snowfall	-12.1602
▁spaghetti	-12.1602
▁sunflower	-12.1602
▁supervise	-12.1602
▁turntable	-12.1602
▁ukulele	-12.1602
▁candid	-12.1602
▁choos	-12.1602
▁flexing	-12.1602
▁grape	-12.1602
▁kickboxer	-12.1602
▁kill	-12.1602
Radio	-12.1602
▁tailgat	-12.1602
▁autograph	-12.1602
▁preschool	-12.1602
▁Bird	-12.1602
colour	-12.1602
▁occurring	-12.1602
▁compact	-12.1602
▁repelling	-12.1602
▁twirls	-12.1602
▁anticipation	-12.1603
▁stem	-12.1603
▁would	-12.1603
dobe	-12.1603
▁pep	-12.1603
▁strand	-12.1603
▁wake	-12.1603
▁comfortable	-12.1603
▁passionately	-12.1603
▁oxen	-12.1603
▁Bush	-12.1604
▁Gate	-12.1604
▁awkwardly	-12.1604
▁fade	-12.1605
▁bassist	-12.1606
▁reflector	-12.1606
▁Centr	-12.1607
▁herbs	-12.1609
▁ram	-12.1609
▁drumming	-12.1611
▁fift	-12.1611
▁countertop	-12.1612
▁indicat	-12.1613
▁globe	-12.1613
▁Guitar	-12.1613
▁netting	-12.1614
▁headlight	-12.1614
▁arches	-12.1614
▁bigger	-12.1614
▁competitively	-12.1616
▁must	-12.1616
▁DS	-12.1617
thletes	-12.162
▁pasture	-12.162
▁hitch	-12.1623
▁skydiver	-12.1624
▁grinder	-12.1624
▁screams	-12.1626
▁Dad	-12.1629
▁forrest	-12.1629
▁slat	-12.1633
▁frosting	-12.1637
▁rat	-12.1639
nion	-12.1642
▁fingernails	-12.1645
link	-12.1649
fter	-12.1652
▁sleepy	-12.1653
▁kabobs	-12.1654
▁peppers	-12.1654
▁refreshments	-12.1654
▁visitors	-12.1655
▁closer	-12.166
coat	-12.1661
▁airline	-12.1663
▁accents	-12.1664
▁rollerskaters	-12.1664
▁twisting	-12.1674
▁Ri	-12.1678
▁ascends	-12.168
▁observed	-12.1686
▁now	-12.1691
▁experience	-12.1695
headed	-12.17
▁recorder	-12.1706
▁patroll	-12.1709
▁barks	-12.1713
▁snorkeling	-12.1719
▁sizes	-12.1731
▁boarder	-12.1732
▁jam	-12.1753
▁tar	-12.1758
▁dandelions	-12.1779
thy	-12.1784
▁Dis	-12.1791
▁questions	-12.1798
▁marks	-12.1805
▁weathered	-12.1808
▁bearer	-12.1813
▁pasta	-12.1823
▁jugs	-12.1826
▁backpackers	-12.1836
RO	-12.1839
▁Pro	-12.1849
▁Cho	-12.1851
▁Sal	-12.1851
▁props	-12.1856
▁topic	-12.1878
▁fli	-12.1884
▁flyer	-12.1915
▁barricades	-12.1935
▁maneuvers	-12.1955
▁started	-12.1957
ES	-12.196
▁tw	-12.1962
▁dumps	-12.1964
▁buckle	-12.1964
▁markers	-12.1967
▁wraps	-12.1972
ious	-12.2004
▁cradle	-12.2016
OR	-12.2039
▁mine	-12.2044
▁cal	-12.2075
inted	-12.2099
vic	-12.2128
▁crashe	-12.2145
▁dipp	-12.2259
▁Chi	-12.226
▁bustl	-12.2261
ade	-12.2263
▁lu	-12.2278
can	-12.2296
mar	-12.2298
▁squat	-12.232
▁spe	-12.237
ader	-12.2374
mn	-12.2375
▁Grand	-12.2385
▁lemon	-12.2402
▁olympic	-12.2404
▁patron	-12.2404
▁donut	-12.2404
tically	-12.2405
▁brace	-12.2406
▁snowshoe	-12.2407
▁interest	-12.2418
front	-12.2418
dress	-12.2425
▁shell	-12.2437
▁min	-12.2438
cap	-12.244
color	-12.244
cloth	-12.245
▁unwrap	-12.2452
▁divid	-12.2461
person	-12.2463
scale	-12.2463
wash	-12.2465
▁blindfold	-12.2487
▁tilt	-12.2488
▁obscur	-12.2488
▁beak	-12.2506
climbing	-12.2508
▁brow	-12.2508
graph	-12.2508
▁whist	-12.251
▁came	-12.251
niform	-12.251
▁react	-12.251
▁anticipat	-12.251
ified	-12.2511
▁pounc	-12.2511
▁Karate	-12.2511
▁contort	-12.2511
▁mulch	-12.2511
▁origin	-12.2511
▁thrill	-12.2511
▁Beijing	-12.2511
▁Celtic	-12.2511
▁Florida	-12.2511
▁Ikea	-12.2511
▁Labrador	-12.2511
▁Rescue	-12.2511
▁Russia	-12.2511
▁Tattoo	-12.2511
▁already	-12.2511
▁animated	-12.2511
▁architectural	-12.2511
▁chandelier	-12.2511
▁claw	-12.2511
▁croquet	-12.2511
▁desperate	-12.2511
▁draft	-12.2511
▁embankment	-12.2511
▁escort	-12.2511
▁evergreen	-12.2511
▁exciting	-12.2511
▁figurine	-12.2511
▁glitter	-12.2511
▁government	-12.2511
▁granite	-12.2511
▁halloween	-12.2511
▁mariachi	-12.2511
▁neatly	-12.2511
▁oxygen	-12.2511
▁pedestal	-12.2511
▁pleasant	-12.2511
▁reindeer	-12.2511
▁ribs	-12.2511
▁santa	-12.2511
▁screwdriver	-12.2511
▁seminar	-12.2511
▁shocked	-12.2511
▁slingshot	-12.2511
▁source	-12.2511
▁spool	-12.2511
▁statute	-12.2511
▁strawberries	-12.2511
▁swaddl	-12.2511
▁sweatsuit	-12.2511
▁swirl	-12.2511
▁wildflowers	-12.2511
▁yawns	-12.2511
▁Mardi	-12.2511
▁sanit	-12.2511
▁sym	-12.2511
▁turf	-12.2511
▁footprints	-12.2511
▁girder	-12.2511
▁ladle	-12.2511
▁Camera	-12.2511
▁peacock	-12.2511
▁Italy	-12.2511
▁decals	-12.2511
▁mexic	-12.2511
affe	-12.2511
▁paramedic	-12.2511
▁subject	-12.2511
▁jagged	-12.2511
▁torso	-12.2511
▁lingerie	-12.2511
▁steady	-12.2511
▁hazard	-12.2511
▁paddy	-12.2511
▁forearm	-12.2511
▁bodies	-12.2511
▁joyfully	-12.2511
▁witness	-12.2511
▁slipper	-12.2511
▁creep	-12.2511
▁mold	-12.2512
▁flatbed	-12.2512
▁boom	-12.2512
▁Gras	-12.2512
▁excavator	-12.2512
▁Stev	-12.2512
▁become	-12.2512
▁dragster	-12.2512
▁mock	-12.2512
▁Tall	-12.2512
egas	-12.2512
▁prun	-12.2512
▁ranch	-12.2512
racial	-12.2512
berry	-12.2513
▁goose	-12.2514
▁Hand	-12.2514
ilot	-12.2514
▁devil	-12.2515
▁whale	-12.2515
▁joyous	-12.2515
▁corral	-12.2516
▁law	-12.2516
▁pout	-12.2516
▁solider	-12.2517
▁auto	-12.2517
▁sashes	-12.2517
▁highlight	-12.2517
ostume	-12.2518
▁Station	-12.2518
▁shark	-12.2518
nicef	-12.2518
▁sno	-12.2519
▁concerned	-12.2519
▁flap	-12.252
▁lighthouse	-12.252
▁arid	-12.2521
▁seaside	-12.2521
▁desktop	-12.2521
▁Island	-12.2521
▁mind	-12.2521
▁booklet	-12.2522
▁oversee	-12.2522
▁seriously	-12.2523
▁intensely	-12.2526
▁prec	-12.2526
▁Toy	-12.2527
▁warmers	-12.2531
▁lovely	-12.2531
▁frog	-12.2532
▁dug	-12.2533
▁poorly	-12.2534
▁trekk	-12.2535
▁grimaces	-12.2537
▁operated	-12.2538
▁onions	-12.2539
▁sharpen	-12.254
▁dropped	-12.2541
▁Rod	-12.2548
▁till	-12.255
▁bumper	-12.2553
▁respective	-12.2554
▁commuter	-12.2561
lays	-12.2563
▁director	-12.2564
▁walkie	-12.2567
▁yells	-12.2569
▁slump	-12.2573
proof	-12.2575
▁bout	-12.2577
▁planter	-12.2578
▁pineapples	-12.2579
▁steaks	-12.2579
▁Farmers	-12.2581
▁controller	-12.2582
▁hide	-12.2583
▁fairly	-12.2586
▁removed	-12.2596
▁pol	-12.2598
▁cameramen	-12.2599
▁handler	-12.2606
▁lockers	-12.2617
▁braces	-12.2621
▁lemons	-12.2621
▁shells	-12.2621
▁hedges	-12.2632
▁streetlights	-12.2632
▁snapp	-12.2638
▁fasten	-12.2642
▁badges	-12.2642
▁taped	-12.2647
▁copy	-12.2647
▁campers	-12.266
hoops	-12.2664
▁smokey	-12.2672
▁entertained	-12.2686
▁keeper	-12.2693
▁mu	-12.27
▁engineer	-12.2708
▁slabs	-12.2717
▁created	-12.2723
structing	-12.2724
▁defends	-12.2729
▁cracker	-12.2729
▁slop	-12.274
potty	-12.275
▁assists	-12.2761
▁steers	-12.2761
▁creative	-12.2768
cock	-12.2778
Cub	-12.2782
▁downwards	-12.2785
▁El	-12.2808
rank	-12.2856
AR	-12.2887
ictorian	-12.2891
truck	-12.29
▁challenge	-12.2914
▁disco	-12.2919
nous	-12.2933
cade	-12.2969
bell	-12.2971
▁ponder	-12.3001
▁outward	-12.301
ism	-12.3075
amper	-12.3193
▁lose	-12.3207
pti	-12.3244
ntry	-12.3362
urp	-12.3366
rg	-12.3376
uch	-12.3382
▁Play	-12.3399
▁relat	-12.34
▁poncho	-12.3402
▁burger	-12.3404
▁guest	-12.3405
▁rapid	-12.3406
▁Bra	-12.3417
▁locker	-12.3426
▁shout	-12.3442
▁research	-12.3446
ash	-12.3452
▁commut	-12.3457
keeper	-12.3459
grown	-12.3461
lantern	-12.3461
point	-12.3462
eastern	-12.3462
crowded	-12.3463
brown	-12.3463
block	-12.3464
flight	-12.3464
hood	-12.3465
pace	-12.3469
away	-12.3478
▁illuminat	-12.3488
rus	-12.3495
▁Isla	-12.35
icated	-12.3507
▁Africa	-12.3508
▁slight	-12.3509
▁graffit	-12.351
thnic	-12.351
▁repel	-12.3511
uzzled	-12.3511
▁dramatic	-12.3511
▁represent	-12.3511
▁midriff	-12.3511
olkswagen	-12.3511
▁Circu	-12.3511
▁Heavy	-12.3511
▁MacBook	-12.3511
▁North	-12.3511
▁Parade	-12.3511
▁Parent	-12.3511
▁SquarePants	-12.3511
▁Terrier	-12.3511
▁Truck	-12.3511
▁accompany	-12.3511
▁assignment	-12.3511
▁bookshelf	-12.3511
▁buoy	-12.3511
▁camcorder	-12.3511
▁carpentry	-12.3511
▁chores	-12.3511
▁clams	-12.3511
▁condom	-12.3511
▁contemplates	-12.3511
▁cork	-12.3511
▁crotch	-12.3511
▁diagram	-12.3511
▁enough	-12.3511
▁espresso	-12.3511
▁extra	-12.3511
▁facade	-12.3511
▁granddaughter	-12.3511
▁grandfather	-12.3511
▁incense	-12.3511
▁jewelery	-12.3511
▁karaoke	-12.3511
▁knead	-12.3511
▁landscaping	-12.3511
▁lettuce	-12.3511
▁martini	-12.3511
▁mortar	-12.3511
▁nursing	-12.3511
▁octopus	-12.3511
▁pallet	-12.3511
▁plaque	-12.3511
▁pokemon	-12.3511
▁pullover	-12.3511
▁require	-12.3511
▁restrain	-12.3511
▁reunion	-12.3511
▁scientific	-12.3511
▁slanted	-12.3511
▁souvenir	-12.3511
▁swoop	-12.3511
▁swung	-12.3511
▁syringe	-12.3511
▁tinker	-12.3511
▁toboggan	-12.3511
▁trapeze	-12.3511
▁trinkets	-12.3511
▁unfold	-12.3511
▁utiliz	-12.3511
▁volcano	-12.3511
▁welcom	-12.3511
quaint	-12.3511
▁Hall	-12.3511
▁cancer	-12.3511
▁ignor	-12.3511
▁owl	-12.3511
▁terrace	-12.3511
▁Power	-12.3511
▁Standing	-12.3511
▁deflat	-12.3511
▁seren	-12.3511
▁sewer	-12.3511
▁compris	-12.3511
▁equipped	-12.3511
egret	-12.3511
▁transaction	-12.3511
▁canister	-12.3511
▁Australia	-12.3511
▁renovat	-12.3511
▁parading	-12.3511
undred	-12.3511
▁notepad	-12.3511
ripple	-12.3511
▁hound	-12.3511
▁viole	-12.3511
▁vaca	-12.3511
▁noise	-12.3511
▁rebound	-12.3511
▁vista	-12.3511
abby	-12.3511
▁extinguish	-12.3511
▁Hotel	-12.3511
▁campground	-12.3512
▁trend	-12.3512
▁grandson	-12.3512
▁barbie	-12.3512
▁totter	-12.3512
▁padding	-12.3512
▁copper	-12.3512
▁Story	-12.3512
▁afro	-12.3512
▁speedboat	-12.3512
▁entry	-12.3512
▁exam	-12.3512
▁motorboat	-12.3512
▁toppings	-12.3512
▁dachshund	-12.3512
▁Even	-12.3512
▁NYC	-12.3512
▁coastline	-12.3512
▁sunrise	-12.3512
▁roam	-12.3512
▁bullhorn	-12.3512
▁fairground	-12.3513
▁restroom	-12.3513
▁freeway	-12.3513
▁Stone	-12.3513
▁Whe	-12.3514
oyota	-12.3514
▁reeds	-12.3514
▁Roman	-12.3515
▁pug	-12.3515
▁cookout	-12.3515
▁equ	-12.3515
▁Latino	-12.3516
▁Mexico	-12.3517
▁zipper	-12.3517
▁program	-12.3519
▁broadly	-12.3519
▁dealer	-12.3519
▁media	-12.352
▁proper	-12.3521
▁gone	-12.3523
ctively	-12.3523
▁safely	-12.3525
▁Top	-12.3525
lway	-12.3526
▁comforter	-12.3526
▁beachfront	-12.3526
▁china	-12.3527
▁giggl	-12.3527
▁Lone	-12.3528
▁crime	-12.3528
▁artifacts	-12.3529
istic	-12.3531
▁hail	-12.3534
▁gap	-12.3539
▁pitche	-12.3539
▁gir	-12.3539
▁layup	-12.3541
▁invert	-12.3546
▁disab	-12.3551
▁melons	-12.3552
▁utensils	-12.3552
▁strangely	-12.3554
▁inner	-12.3557
▁ballroom	-12.3557
▁exposed	-12.3561
▁weed	-12.3561
▁lathe	-12.3563
▁Har	-12.3573
▁fitting	-12.3574
aisle	-12.3574
▁zooms	-12.3575
▁eyebrows	-12.3575
▁searche	-12.3576
▁unwrapp	-12.3576
irway	-12.3585
▁scored	-12.3586
▁treads	-12.3587
▁canon	-12.359
▁shear	-12.3596
▁Pop	-12.3598
▁documents	-12.3598
▁veterans	-12.3598
ockeys	-12.3599
▁curls	-12.3599
RE	-12.3606
care	-12.3609
saucer	-12.3616
EL	-12.3617
▁tunes	-12.3617
▁ponchos	-12.3622
▁caged	-12.3622
▁pumping	-12.3624
▁Redhead	-12.3628
flop	-12.3635
▁seasoning	-12.3638
▁civilians	-12.3645
▁em	-12.3649
▁wrapper	-12.3652
MC	-12.3654
boarder	-12.3656
▁dash	-12.3656
▁sombreros	-12.3657
▁collected	-12.3659
▁chopped	-12.368
▁completed	-12.3689
▁archer	-12.3699
▁wrangl	-12.3716
▁beautifully	-12.3722
ingham	-12.3736
▁zipp	-12.3754
▁onward	-12.376
cuba	-12.3792
fully	-12.3796
▁spit	-12.3802
▁launche	-12.384
anned	-12.3848
▁provide	-12.3878
lor	-12.3917
icken	-12.392
▁Na	-12.3963
ara	-12.3969
▁separat	-12.3996
shes	-12.4011
▁caus	-12.4021
▁rid	-12.4027
ox	-12.4072
aving	-12.4082
ought	-12.4096
PS	-12.4109
ushing	-12.4125
▁challeng	-12.4146
▁hope	-12.4156
TA	-12.417
arching	-12.4177
▁mot	-12.42
▁massag	-12.4204
pie	-12.4211
▁passer	-12.4214
ound	-12.4222
▁dec	-12.4226
▁backhand	-12.4262
chi	-12.4331
▁Bag	-12.4348
▁execut	-12.435
▁cata	-12.4374
lade	-12.4377
▁tune	-12.438
TO	-12.4387
▁wrangle	-12.4398
ndy	-12.4475
clud	-12.4499
▁rollerskate	-12.4515
▁noodle	-12.4516
▁Runner	-12.452
nny	-12.4532
▁blend	-12.4547
▁slum	-12.4547
▁exchang	-12.4551
▁ston	-12.4562
▁hugg	-12.4562
plane	-12.4563
▁shap	-12.4563
size	-12.4564
▁Rid	-12.4564
guard	-12.4572
dye	-12.4573
venue	-12.4573
▁arc	-12.4575
Man	-12.4584
mark	-12.459
amm	-12.4595
▁cry	-12.4595
stage	-12.46
ext	-12.4601
▁Skateboard	-12.4605
illager	-12.4615
▁husk	-12.4616
▁attract	-12.4616
▁current	-12.4618
▁apparent	-12.4618
▁vari	-12.4621
▁again	-12.4621
▁Business	-12.4621
▁shov	-12.4622
assersby	-12.4622
▁vocal	-12.4622
olunteer	-12.4622
raffiti	-12.4622
ditional	-12.4622
born	-12.4622
▁Domino	-12.4622
ING	-12.4622
▁Cross	-12.4622
▁Employee	-12.4622
▁Kayak	-12.4622
▁Popsicle	-12.4622
▁astronaut	-12.4622
▁brindle	-12.4622
▁certificate	-12.4622
▁colonial	-12.4622
▁pistol	-12.4622
▁reason	-12.4622
▁rummag	-12.4622
▁spirit	-12.4622
▁tassel	-12.4622
ynyrd	-12.4622
▁Ballerina	-12.4622
▁Center	-12.4622
▁Challenge	-12.4622
▁Commuter	-12.4622
▁Crocs	-12.4622
▁Dressed	-12.4622
▁Engine	-12.4622
▁Foreign	-12.4622
▁Francisco	-12.4622
▁Pink	-12.4622
▁Skynyrd	-12.4622
▁Teacher	-12.4622
▁Twister	-12.4622
▁Wonder	-12.4622
▁amazed	-12.4622
▁arrival	-12.4622
▁bluish	-12.4622
▁brief	-12.4622
▁charity	-12.4622
▁chimney	-12.4622
▁collaps	-12.4622
▁compartment	-12.4622
▁composed	-12.4622
▁detector	-12.4622
▁eccentric	-12.4622
▁erect	-12.4622
▁eyeliner	-12.4622
▁faucet	-12.4622
▁gladiator	-12.4622
▁grandchild	-12.4622
▁grimacing	-12.4622
▁handcuff	-12.4622
▁happiness	-12.4622
▁humorous	-12.4622
▁iPad	-12.4622
▁igloo	-12.4622
▁improvise	-12.4622
▁internet	-12.4622
▁investigate	-12.4622
▁lanyard	-12.4622
▁license	-12.4622
▁limousine	-12.4622
▁livestock	-12.4622
▁mermaid	-12.4622
▁nylon	-12.4622
▁pharmacy	-12.4622
▁postcards	-12.4622
▁recital	-12.4622
▁regalia	-12.4622
▁regard	-12.4622
▁salute	-12.4622
▁saxaphone	-12.4622
▁saxophonist	-12.4622
▁scrimmage	-12.4622
▁shampoo	-12.4622
▁shredd	-12.4622
▁smartphone	-12.4622
▁solution	-12.4622
▁south	-12.4622
▁spanish	-12.4622
▁summit	-12.4622
▁trough	-12.4622
▁tux	-12.4622
▁twenty	-12.4622
▁twilight	-12.4622
▁typical	-12.4622
▁uneven	-12.4622
▁unpack	-12.4622
▁upraised	-12.4622
▁upstairs	-12.4622
▁victim	-12.4622
▁whisk	-12.4622
▁windmill	-12.4622
credibl	-12.4622
▁checkerboard	-12.4622
▁commo	-12.4622
▁flank	-12.4622
▁grappl	-12.4622
▁Bud	-12.4622
▁classmates	-12.4622
▁distor	-12.4622
▁fishnet	-12.4622
▁fail	-12.4622
▁fanny	-12.4622
▁tasty	-12.4622
▁sedan	-12.4622
▁lemonade	-12.4622
▁snarl	-12.4622
▁Revolution	-12.4622
▁announcement	-12.4622
▁sheepdog	-12.4622
▁Hollywood	-12.4622
▁joking	-12.4622
▁Life	-12.4622
▁stitch	-12.4622
▁europe	-12.4622
▁delicious	-12.4622
▁tasting	-12.4622
▁swallow	-12.4622
▁tech	-12.4622
ubby	-12.4622
▁twig	-12.4622
titled	-12.4623
▁countries	-12.4623
▁pluck	-12.4623
▁steadie	-12.4623
▁duty	-12.4623
▁refrigerator	-12.4623
▁Spain	-12.4623
▁buff	-12.4623
otocross	-12.4623
▁loop	-12.4623
▁Bridge	-12.4623
▁grace	-12.4623
▁triangle	-12.4623
▁boundary	-12.4623
▁magician	-12.4623
▁gang	-12.4623
▁pursuit	-12.4623
▁grating	-12.4623
▁situat	-12.4623
▁desp	-12.4624
▁alert	-12.4624
▁mike	-12.4624
▁imitat	-12.4624
▁jetty	-12.4624
▁haz	-12.4624
▁Twin	-12.4624
▁placard	-12.4624
▁scroll	-12.4624
▁hipster	-12.4624
rick	-12.4624
▁nest	-12.4625
▁indig	-12.4625
▁chessboard	-12.4625
splatter	-12.4625
▁Gentlemen	-12.4626
▁Cast	-12.4626
▁punt	-12.4626
▁tooth	-12.4627
▁centr	-12.4627
▁misses	-12.4628
▁charge	-12.4628
itive	-12.4629
▁twister	-12.4629
▁observers	-12.463
RA	-12.463
▁manner	-12.4631
▁keyboardist	-12.4631
▁peacefully	-12.4633
▁dude	-12.4633
▁dingy	-12.4634
▁poll	-12.4634
▁median	-12.4635
▁distracted	-12.4635
▁shut	-12.4635
▁Skii	-12.4635
▁passage	-12.4636
▁Row	-12.4636
▁spectate	-12.4637
▁flippers	-12.4638
▁stretcher	-12.4643
▁overflowing	-12.4644
scape	-12.4644
▁recliner	-12.4644
▁unusually	-12.4645
▁hunter	-12.4646
▁busily	-12.4646
▁skim	-12.4649
▁healthy	-12.465
▁future	-12.465
▁puzzled	-12.4651
▁applauding	-12.4652
▁whispering	-12.4652
ham	-12.4653
▁hilltop	-12.4654
▁cramp	-12.4655
▁frolick	-12.4656
▁goth	-12.4658
▁clasped	-12.4661
▁billowing	-12.4661
load	-12.4665
▁evil	-12.4667
▁scrubbing	-12.4667
▁prey	-12.4683
▁divider	-12.4685
▁describe	-12.4685
▁pace	-12.4685
▁signage	-12.4692
▁needed	-12.4693
▁mates	-12.4694
▁primar	-12.4695
glo	-12.4699
▁grayish	-12.4703
robe	-12.4704
▁dodge	-12.4706
▁novelt	-12.4709
▁deeply	-12.4715
▁wa	-12.4726
▁backside	-12.4736
▁cit	-12.4776
ium	-12.4778
▁lego	-12.479
▁resemble	-12.4792
run	-12.48
cific	-12.4819
▁sucker	-12.4826
shir	-12.4831
▁ascend	-12.4835
▁Form	-12.4848
stern	-12.4864
▁execute	-12.4902
ican	-12.4902
▁vie	-12.4903
ipped	-12.4945
▁presen	-12.4964
▁Cam	-12.4981
SC	-12.4984
hop	-12.4995
olv	-12.5026
▁mob	-12.5044
ER	-12.513
▁smok	-12.5133
rought	-12.5179
mat	-12.5217
▁bro	-12.5262
▁fitt	-12.5265
gan	-12.5268
chipper	-12.5319
ache	-12.5337
▁collid	-12.5351
▁chipp	-12.5356
▁feat	-12.5363
gen	-12.5394
ista	-12.5502
uve	-12.5514
ockey	-12.5516
rushes	-12.5588
rock	-12.5607
▁fiddl	-12.5613
▁curl	-12.5656
▁weld	-12.566
▁chop	-12.5724
▁scrambl	-12.5734
▁roman	-12.5744
▁Bi	-12.5754
▁document	-12.5763
▁veteran	-12.5763
▁spectator	-12.5768
▁overall	-12.5768
▁soak	-12.578
▁traveler	-12.5797
action	-12.5798
▁hous	-12.5802
▁styl	-12.5803
rade	-12.581
▁Fin	-12.5812
panel	-12.5823
skating	-12.5823
school	-12.5824
golf	-12.5824
orange	-12.5824
writ	-12.5824
glass	-12.5824
EN	-12.585
zens	-12.5853
▁blaz	-12.5864
raffic	-12.5865
▁sparse	-12.5871
▁crow	-12.5871
lementary	-12.5871
twirl	-12.5871
▁recreat	-12.5872
▁depart	-12.5872
▁Iowa	-12.5872
▁Michael	-12.5872
▁biscuit	-12.5872
▁colleague	-12.5872
▁correct	-12.5872
▁corset	-12.5872
▁crossbones	-12.5872
▁geisha	-12.5872
▁opposition	-12.5872
▁shrug	-12.5872
▁slush	-12.5872
▁timber	-12.5872
clips	-12.5872
uarterback	-12.5872
▁Birmingham	-12.5872
▁Collie	-12.5872
▁Dior	-12.5872
▁Extreme	-12.5872
▁Festival	-12.5872
▁Grouch	-12.5872
▁Palestinian	-12.5872
▁Pigeon	-12.5872
▁Pitcher	-12.5872
▁Traveler	-12.5872
▁advance	-12.5872
▁appropriate	-12.5872
▁atmosphere	-12.5872
▁benefit	-12.5872
▁breastfeed	-12.5872
▁briskly	-12.5872
▁buffalo	-12.5872
▁choice	-12.5872
▁chorus	-12.5872
▁crevice	-12.5872
▁crisp	-12.5872
▁death	-12.5872
▁disinterested	-12.5872
▁distribut	-12.5872
▁dozes	-12.5872
▁encourag	-12.5872
▁envelope	-12.5872
▁extravagant	-12.5872
▁eyeshadow	-12.5872
▁frightened	-12.5872
▁frustrated	-12.5872
▁fuchsia	-12.5872
▁gender	-12.5872
▁geyser	-12.5872
▁gnaw	-12.5872
▁handgun	-12.5872
▁identify	-12.5872
▁illustrat	-12.5872
▁leisurely	-12.5872
▁loudspeaker	-12.5872
▁nervous	-12.5872
▁palace	-12.5872
▁pantyhose	-12.5872
▁parrot	-12.5872
▁perspective	-12.5872
▁proceed	-12.5872
▁pulp	-12.5872
▁remodel	-12.5872
▁scribbl	-12.5872
▁shrimp	-12.5872
▁sightseeing	-12.5872
▁slalom	-12.5872
▁snuggling	-12.5872
▁stencil	-12.5872
▁stewardess	-12.5872
▁stories	-12.5872
▁swiftly	-12.5872
▁trophies	-12.5872
▁twenties	-12.5872
▁worried	-12.5872
▁Face	-12.5872
▁Louis	-12.5872
▁cosplay	-12.5872
▁droplets	-12.5872
▁garter	-12.5872
▁headlamp	-12.5872
▁hurl	-12.5872
▁shuffl	-12.5872
▁stumbl	-12.5872
▁version	-12.5872
aredevil	-12.5872
▁consider	-12.5872
▁hello	-12.5872
▁Racing	-12.5872
▁keg	-12.5872
▁Penn	-12.5872
▁intercept	-12.5872
▁Paint	-12.5872
▁Tech	-12.5872
▁please	-12.5872
▁salesman	-12.5872
▁trudg	-12.5872
▁property	-12.5872
▁speck	-12.5872
▁automat	-12.5872
▁miniskirt	-12.5872
▁dramatically	-12.5872
▁entryway	-12.5873
▁Tree	-12.5873
▁preteen	-12.5873
▁pouch	-12.5873
▁wound	-12.5873
▁tickl	-12.5873
▁dugout	-12.5873
▁Paris	-12.5873
Miller	-12.5873
▁latter	-12.5873
▁slim	-12.5873
▁dueling	-12.5873
▁delight	-12.5873
▁fool	-12.5873
▁fringe	-12.5873
Paul	-12.5873
▁rays	-12.5873
▁camo	-12.5873
▁Corp	-12.5873
▁sunbathers	-12.5873
▁crank	-12.5873
▁cuff	-12.5873
▁sac	-12.5874
▁alter	-12.5874
▁Ferr	-12.5874
▁Deli	-12.5874
empt	-12.5874
▁cornfield	-12.5874
▁sick	-12.5874
▁cellist	-12.5874
▁concentration	-12.5874
▁daring	-12.5875
▁grownup	-12.5875
▁waste	-12.5875
▁fling	-12.5875
▁earpiece	-12.5876
▁opportunity	-12.5876
▁production	-12.5876
▁barbell	-12.5876
▁boss	-12.5876
oise	-12.5877
lurry	-12.5877
▁Fat	-12.5877
▁Fair	-12.5878
▁jaw	-12.5878
▁shipping	-12.5879
inated	-12.5879
▁dove	-12.588
▁daycare	-12.588
▁grid	-12.5882
▁Canada	-12.5883
▁reel	-12.5884
▁injur	-12.5885
▁ethnicity	-12.5885
▁tangle	-12.5885
▁server	-12.5886
▁boyfriend	-12.5887
▁union	-12.5888
▁Officer	-12.5888
▁vertically	-12.5888
▁archery	-12.5889
▁End	-12.5892
▁thigh	-12.5892
uslim	-12.5892
▁rein	-12.5892
▁toned	-12.5893
rows	-12.5893
▁exhausted	-12.5894
riding	-12.5894
▁bot	-12.5895
▁prepp	-12.5896
▁Line	-12.5897
▁rafters	-12.5898
▁House	-12.5899
▁God	-12.59
screw	-12.5902
▁dj	-12.5903
▁talkie	-12.5904
▁date	-12.5907
▁Nu	-12.5912
▁ornately	-12.5914
▁Sled	-12.5923
▁Bill	-12.593
▁specialize	-12.5933
▁neu	-12.5947
▁grim	-12.5953
▁bomb	-12.5955
ON	-12.596
▁cot	-12.5961
evil	-12.5968
▁May	-12.5982
▁jo	-12.5985
▁squatt	-12.6001
▁scramble	-12.6012
FL	-12.6015
▁relative	-12.6017
▁Fo	-12.6035
HO	-12.6047
▁patt	-12.6048
▁Grandm	-12.6048
cro	-12.605
izz	-12.6063
▁dam	-12.6111
lves	-12.6128
▁rower	-12.6135
KE	-12.6158
ummer	-12.6236
CH	-12.6243
▁def	-12.6347
gie	-12.6439
▁Mount	-12.6467
illa	-12.6556
bag	-12.6565
powered	-12.6593
NA	-12.668
▁sti	-12.672
innie	-12.6722
▁mustach	-12.6768
ropped	-12.6769
rmen	-12.6835
uk	-12.6838
▁Side	-12.6862
▁rent	-12.6863
udge	-12.6864
unch	-12.697
rov	-12.6995
hero	-12.6997
▁via	-12.7023
surf	-12.7045
▁resembl	-12.7084
oyed	-12.7089
risk	-12.7094
avan	-12.7105
boo	-12.7108
▁travers	-12.7142
climb	-12.718
▁tread	-12.7191
▁pineapple	-12.7192
▁steak	-12.7192
▁accent	-12.7192
▁rollerskater	-12.7195
▁sneaker	-12.7196
▁Hiker	-12.7197
▁Farmer	-12.7201
quin	-12.7209
▁sna	-12.7215
parent	-12.722
▁Fisher	-12.7229
cover	-12.7232
▁woodwork	-12.7249
▁Run	-12.7249
hawk	-12.725
special	-12.7252
horn	-12.7252
skirt	-12.7252
thumbs	-12.7252
weather	-12.7252
pattern	-12.7252
throw	-12.7252
with	-12.7252
Asian	-12.7252
uniform	-12.7254
cake	-12.7254
▁Wait	-12.7256
cell	-12.7258
love	-12.7258
▁report	-12.7261
▁skydive	-12.7263
leap	-12.7263
level	-12.7264
▁Color	-12.7271
hold	-12.7272
▁exhaust	-12.7276
lected	-12.7281
▁retai	-12.7286
burn	-12.7286
▁scare	-12.7292
▁Hol	-12.7293
▁corr	-12.7293
▁thir	-12.7294
▁ethnicit	-12.7295
▁awkward	-12.7296
▁smart	-12.7297
mini	-12.7297
▁Indi	-12.7298
▁excavat	-12.7299
visib	-12.7299
espa	-12.7299
ricket	-12.73
atrons	-12.73
ehind	-12.73
▁occur	-12.7301
▁volley	-12.7301
xford	-12.7301
▁announc	-12.7301
eague	-12.7301
▁bullfight	-12.7301
▁client	-12.7301
▁diploma	-12.7301
▁effect	-12.7301
▁gadget	-12.7301
afari	-12.7301
erizon	-12.7301
▁Athletic	-12.7301
▁Canyon	-12.7301
▁Climber	-12.7301
▁Coffee	-12.7301
▁Doberman	-12.7301
▁England	-12.7301
▁Excit	-12.7301
▁Factory	-12.7301
▁Field	-12.7301
▁Georg	-12.7301
▁Heineken	-12.7301
▁Image	-12.7301
▁Memorial	-12.7301
▁Mercedes	-12.7301
▁Monster	-12.7301
▁Participant	-12.7301
▁Prince	-12.7301
▁Restaurant	-12.7301
▁Scientist	-12.7301
▁Short	-12.7301
▁Tibetan	-12.7301
▁Tinker	-12.7301
▁Walgreens	-12.7301
▁advantage	-12.7301
▁appliance	-12.7301
▁arguing	-12.7301
▁arriving	-12.7301
▁banister	-12.7301
▁bookcase	-12.7301
▁bratwurst	-12.7301
▁broccoli	-12.7301
▁burlap	-12.7301
▁burrito	-12.7301
▁buzz	-12.7301
▁cactus	-12.7301
▁calligraphy	-12.7301
▁carcass	-12.7301
▁chinatown	-12.7301
▁click	-12.7301
▁clover	-12.7301
▁communication	-12.7301
▁condiment	-12.7301
▁crumb	-12.7301
▁detergent	-12.7301
▁difficult	-12.7301
▁dojo	-12.7301
▁duties	-12.7301
▁effort	-12.7301
▁emblem	-12.7301
▁engrav	-12.7301
▁falcon	-12.7301
▁faux	-12.7301
▁ferret	-12.7301
▁flamboyant	-12.7301
▁flexible	-12.7301
▁fortune	-12.7301
▁freezer	-12.7301
▁gleeful	-12.7301
▁glue	-12.7301
▁gurney	-12.7301
▁habit	-12.7301
▁iMac	-12.7301
▁iPhone	-12.7301
▁intrigu	-12.7301
▁knoll	-12.7301
▁lattice	-12.7301
▁lodge	-12.7301
▁mechanism	-12.7301
▁moustache	-12.7301
▁nipple	-12.7301
▁occupy	-12.7301
▁particular	-12.7301
▁perplexed	-12.7301
▁pitchfork	-12.7301
▁plaster	-12.7301
▁plugs	-12.7301
▁poultry	-12.7301
▁private	-12.7301
▁replica	-12.7301
▁result	-12.7301
▁rottweiler	-12.7301
▁showcas	-12.7301
▁slouch	-12.7301
▁snooz	-12.7301
▁squints	-12.7301
▁starfish	-12.7301
▁strength	-12.7301
▁supervising	-12.7301
▁supervision	-12.7301
▁sync	-12.7301
▁throat	-12.7301
▁tobacco	-12.7301
▁urinat	-12.7301
▁viewfinder	-12.7301
▁vigil	-12.7301
▁vigorous	-12.7301
▁violence	-12.7301
▁windshield	-12.7301
▁wreath	-12.7301
▁yacht	-12.7301
▁Tower	-12.7301
▁fran	-12.7301
▁gypsy	-12.7301
▁hatchet	-12.7301
▁scowl	-12.7301
▁windsurfs	-12.7301
▁Nurse	-12.7301
▁armchair	-12.7301
▁easy	-12.7301
▁maze	-12.7301
▁moored	-12.7301
▁sandpit	-12.7301
▁affection	-12.7301
▁obliv	-12.7301
▁rugged	-12.7301
▁Hang	-12.7301
▁Mariach	-12.7301
▁rotat	-12.7301
▁explosion	-12.7301
▁stalks	-12.7301
▁Buy	-12.7301
▁cascad	-12.7301
▁compound	-12.7301
▁dominate	-12.7301
expert	-12.7301
▁bluff	-12.7301
▁shuttle	-12.7301
▁liberty	-12.7301
▁dripping	-12.7301
▁milkshake	-12.7301
▁outfielder	-12.7301
▁beetle	-12.7301
▁reenactment	-12.7301
▁passageway	-12.7301
▁emptie	-12.7301
▁rigging	-12.7301
▁chute	-12.7301
▁kitty	-12.7301
▁align	-12.7301
▁gutter	-12.7301
▁comfortably	-12.7301
▁snail	-12.7301
▁mosque	-12.7301
▁moose	-12.7301
zag	-12.7302
▁excavation	-12.7302
▁brandish	-12.7302
▁Labor	-12.7302
▁Series	-12.7302
▁Cricket	-12.7302
▁grandma	-12.7302
▁Phil	-12.7302
▁duct	-12.7302
▁foul	-12.7302
▁Businessman	-12.7302
▁Marine	-12.7302
▁rins	-12.7302
▁gut	-12.7302
▁goalkeeper	-12.7302
airie	-12.7303
▁installation	-12.7303
▁Egy	-12.7303
Tube	-12.7303
▁brake	-12.7303
▁organization	-12.7304
▁household	-12.7304
▁vat	-12.7304
▁kel	-12.7304
▁Doll	-12.7304
▁clenched	-12.7305
▁farmland	-12.7305
▁touchdown	-12.7305
▁maid	-12.7305
▁propeller	-12.7306
trical	-12.7307
abst	-12.7307
▁midday	-12.7307
▁pian	-12.7307
▁stapl	-12.7307
▁Cure	-12.7308
▁startled	-12.7309
culin	-12.731
▁mattresses	-12.731
▁impo	-12.731
aura	-12.7311
unny	-12.7311
▁tye	-12.7312
rchaeologist	-12.7312
▁Cand	-12.7312
▁Chan	-12.7312
▁grade	-12.7313
curity	-12.7313
▁bail	-12.7314
▁PC	-12.7316
Bowl	-12.7317
▁Hard	-12.7318
▁handsaw	-12.7319
▁West	-12.7319
▁portly	-12.732
ordina	-12.7321
▁pic	-12.7322
antic	-12.7323
AID	-12.7329
randparents	-12.7332
▁burro	-12.7332
sks	-12.7332
▁vandali	-12.7338
▁coil	-12.7344
▁cath	-12.7347
IS	-12.7361
▁cruiser	-12.7373
▁packet	-12.7375
▁pranc	-12.738
▁propell	-12.7389
▁steeple	-12.7396
▁researcher	-12.7396
dense	-12.7422
▁laborer	-12.7456
▁sin	-12.7517
▁Racer	-12.7517
tender	-12.7588
▁skillful	-12.7588
obs	-12.7637
▁Kni	-12.7739
agged	-12.7798
▁compl	-12.7805
▁tort	-12.7813
trum	-12.7853
BS	-12.7886
▁tackler	-12.7917
seat	-12.7941
abs	-12.7961
▁respirat	-12.7983
▁lac	-12.8036
▁observ	-12.8065
ttractive	-12.8121
▁judg	-12.8173
organ	-12.8219
NE	-12.8372
ecked	-12.842
▁celebrat	-12.844
face	-12.8571
imi	-12.8676
unning	-12.8701
▁scrub	-12.8721
▁latin	-12.8734
glider	-12.8761
▁yell	-12.8788
▁Mac	-12.8798
hio	-12.8819
inner	-12.8826
▁novel	-12.8846
▁rollerblade	-12.8851
two	-12.8856
▁Perform	-12.8857
▁eyebrow	-12.8858
▁kabob	-12.8859
▁pepper	-12.8859
▁refreshment	-12.886
▁Sport	-12.886
▁handlebar	-12.8862
▁bystander	-12.8862
▁propel	-12.8862
▁zoom	-12.8862
▁hunt	-12.8864
▁Teenager	-12.8868
▁describ	-12.8871
▁visitor	-12.8872
▁shopper	-12.8876
▁respect	-12.8887
itter	-12.8892
▁decor	-12.8895
▁Tab	-12.8897
▁journal	-12.8907
▁frost	-12.8909
maker	-12.8918
foot	-12.8918
peace	-12.8919
frame	-12.8919
scene	-12.8919
floor	-12.8919
jacket	-12.8919
match	-12.8921
zoo	-12.8921
bearded	-12.8923
kick	-12.8924
ridge	-12.8928
skate	-12.8929
▁Hous	-12.8946
ripe	-12.8946
▁brim	-12.8956
▁fas	-12.8959
ecorated	-12.8962
▁Gree	-12.8964
▁turb	-12.8966
▁triang	-12.8966
▁gentle	-12.8966
▁elev	-12.8967
taff	-12.8967
olleyball	-12.8967
▁euro	-12.8967
▁bleache	-12.8967
▁delicate	-12.8967
iberty	-12.8967
mpact	-12.8967
indow	-12.8967
nual	-12.8967
pposing	-12.8967
ibbon	-12.8967
▁neighbor	-12.8967
▁Pacific	-12.8967
▁Service	-12.8967
▁cucumber	-12.8967
▁excess	-12.8967
▁muffin	-12.8967
▁refuge	-12.8967
Hollister	-12.8967
dominant	-12.8967
kwon	-12.8967
uiznos	-12.8967
▁Amsterdam	-12.8967
▁Carnival	-12.8967
▁Carolina	-12.8967
▁Chinatown	-12.8967
▁Citizen	-12.8967
▁Club	-12.8967
▁Company	-12.8967
▁Cruz	-12.8967
▁Dalmatian	-12.8967
▁Dalmation	-12.8967
▁Guard	-12.8967
▁Haiti	-12.8967
▁Hind	-12.8967
▁Lakers	-12.8967
▁Michigan	-12.8967
▁Minne	-12.8967
▁Needle	-12.8967
▁Pretty	-12.8967
▁Rollerblader	-12.8967
▁Silhouette	-12.8967
▁Sleep	-12.8967
▁Special	-12.8967
▁Toronto	-12.8967
▁Trader	-12.8967
▁aerodynamic	-12.8967
▁affectionately	-12.8967
▁aloud	-12.8967
▁amphitheater	-12.8967
▁analyz	-12.8967
▁ashtray	-12.8967
▁bleeding	-12.8967
▁bookshelves	-12.8967
▁boutique	-12.8967
▁celery	-12.8967
▁cherries	-12.8967
▁collage	-12.8967
▁command	-12.8967
▁conceal	-12.8967
▁contemporary	-12.8967
▁corporat	-12.8967
▁cultivat	-12.8967
▁custodian	-12.8967
▁dangle	-12.8967
▁description	-12.8967
▁didgeridoo	-12.8967
▁disaster	-12.8967
▁dumbbell	-12.8967
▁eclectic	-12.8967
▁encounter	-12.8967
▁faint	-12.8967
▁festivities	-12.8967
▁flexibility	-12.8967
▁foosball	-12.8967
▁footpath	-12.8967
▁fowl	-12.8967
▁freedom	-12.8967
▁furnace	-12.8967
▁general	-12.8967
▁hookah	-12.8967
▁improvement	-12.8967
▁incomplete	-12.8967
▁interrupt	-12.8967
▁investigating	-12.8967
▁kangaroo	-12.8967
▁lagoon	-12.8967
▁lampshade	-12.8967
▁literature	-12.8967
▁marquee	-12.8967
▁nibbl	-12.8967
▁outstreached	-12.8967
▁oval	-12.8967
▁packaging	-12.8967
▁paragliding	-12.8967
▁partition	-12.8967
▁pegs	-12.8967
▁pendant	-12.8967
▁perfume	-12.8967
▁pharmacist	-12.8967
▁pizzeria	-12.8967
▁prisoner	-12.8967
▁proclaim	-12.8967
▁prosthetic	-12.8967
▁qualit	-12.8967
▁queue	-12.8967
▁quintet	-12.8967
▁rehearse	-12.8967
▁rhythm	-12.8967
▁roulette	-12.8967
▁ruler	-12.8967
▁scrabble	-12.8967
▁shroud	-12.8967
▁slinky	-12.8967
▁sungalsses	-12.8967
▁sunshade	-12.8967
▁synthesizer	-12.8967
▁tapestry	-12.8967
▁triathlon	-12.8967
▁underpass	-12.8967
▁untangl	-12.8967
▁venture	-12.8967
▁wharf	-12.8967
▁wrinkle	-12.8967
▁Border	-12.8967
▁Guin	-12.8967
▁Ranger	-12.8967
▁Saint	-12.8967
▁choke	-12.8967
▁corgi	-12.8967
▁garish	-12.8967
▁smith	-12.8967
▁David	-12.8967
▁etching	-12.8967
▁teepee	-12.8967
▁tinsel	-12.8967
▁referenc	-12.8967
▁scann	-12.8967
Skater	-12.8967
▁Pupp	-12.8967
▁poem	-12.8968
▁reced	-12.8968
▁salt	-12.8968
Alaska	-12.8968
▁Tiger	-12.8968
▁jester	-12.8968
▁gracefully	-12.8968
irgin	-12.8968
▁Capit	-12.8968
▁meander	-12.8968
iculous	-12.8968
▁knot	-12.8968
▁sideburns	-12.8968
▁week	-12.8968
▁minute	-12.8968
▁aloft	-12.8968
▁spectating	-12.8968
▁harle	-12.8968
▁signify	-12.8968
enice	-12.8968
▁Spark	-12.8968
▁astonish	-12.8968
▁blast	-12.8968
azon	-12.8968
▁altar	-12.8968
▁hurri	-12.8968
▁championship	-12.8968
▁Theater	-12.8968
▁Sister	-12.8968
narch	-12.8968
▁crude	-12.8968
▁modifie	-12.8968
ckab	-12.8968
▁Yong	-12.8968
▁judo	-12.8968
▁papa	-12.8968
▁oboe	-12.8968
▁Afro	-12.8968
▁Basket	-12.8968
▁Winnie	-12.8968
▁Wedding	-12.8968
▁Metro	-12.8968
▁Camel	-12.8968
▁hollow	-12.8968
▁florist	-12.8969
▁percussionist	-12.8969
▁filter	-12.8969
▁alien	-12.8969
▁mood	-12.8969
▁Bunch	-12.8969
▁marine	-12.8969
▁piling	-12.8969
▁retro	-12.8969
▁wax	-12.8969
▁beef	-12.897
▁reaction	-12.897
▁Shelt	-12.897
▁shuck	-12.897
▁Rail	-12.897
▁polar	-12.897
ackson	-12.897
IG	-12.897
stomp	-12.897
rail	-12.8971
▁Fast	-12.8971
maran	-12.8971
▁exist	-12.8971
▁anxiously	-12.8971
▁contently	-12.8971
▁digger	-12.8972
▁treatment	-12.8972
▁Lab	-12.8972
▁Hero	-12.8972
▁manager	-12.8972
istant	-12.8972
▁silverware	-12.8972
▁waders	-12.8973
▁smartly	-12.8973
▁stating	-12.8973
▁bushel	-12.8974
▁sparsely	-12.8974
illian	-12.8974
▁placid	-12.8974
▁showroom	-12.8974
mmuni	-12.8975
▁properly	-12.8975
▁ID	-12.8975
▁flatten	-12.8975
▁Wine	-12.8976
▁spun	-12.8977
▁Sub	-12.8977
▁felt	-12.8978
▁electricity	-12.8979
▁obstruct	-12.8979
▁Hot	-12.898
vid	-12.8981
▁mailboxes	-12.8982
ggling	-12.8982
▁glare	-12.8983
occe	-12.8987
▁idle	-12.8989
▁thank	-12.8995
▁trad	-12.9008
▁plushie	-12.9009
▁role	-12.9011
▁fillet	-12.9049
Grill	-12.9058
▁nav	-12.9076
▁dice	-12.9082
▁blender	-12.9086
▁Runn	-12.909
▁Bicycler	-12.9167
latino	-12.9207
mpire	-12.9214
▁thoughtful	-12.9231
life	-12.9241
Ball	-12.9257
▁paraglide	-12.9278
hungry	-12.9284
verish	-12.9301
lks	-12.9343
WI	-12.9473
aught	-12.9487
HA	-12.9538
Bron	-12.9554
▁scrubb	-12.9608
ancy	-12.9628
verhead	-12.9718
▁sco	-12.9758
cou	-12.9789
▁Kl	-12.9829
dropped	-12.9831
oggers	-12.9916
shaven	-13.0058
spiration	-13.006
mused	-13.0119
▁victori	-13.0137
MP	-13.0585
▁plat	-13.0648
skin	-13.0654
vention	-13.072
rolling	-13.0795
▁dodg	-13.0813
zzle	-13.084
▁content	-13.0858
▁fingernail	-13.0859
▁Scout	-13.0859
▁condition	-13.086
▁drumstick	-13.086
▁pretzel	-13.086
▁Lego	-13.0862
▁fatigue	-13.0862
▁Student	-13.0863
▁binocular	-13.0863
▁goggle	-13.0864
▁donation	-13.0865
▁shingle	-13.0874
▁cruis	-13.0884
turn	-13.0895
▁billow	-13.0896
game	-13.0902
▁fram	-13.0907
▁Again	-13.0914
completed	-13.0917
beater	-13.0917
cycle	-13.0917
dancing	-13.0918
scope	-13.0918
picker	-13.0918
cafe	-13.0919
clear	-13.0919
grass	-13.0919
yellow	-13.0919
bound	-13.092
know	-13.092
visible	-13.0921
New	-13.0921
bull	-13.0922
gym	-13.0923
▁produc	-13.0926
drive	-13.0927
shake	-13.0929
▁sampl	-13.0929
▁crim	-13.0934
▁distract	-13.0943
▁advert	-13.0953
loom	-13.0957
▁inflate	-13.0958
usks	-13.0958
▁damage	-13.0959
▁anxious	-13.0963
▁Speed	-13.0965
uddhist	-13.0966
ptu	-13.0967
nglish	-13.0967
▁careful	-13.0967
ystanders	-13.0967
urgeons	-13.0967
rofile	-13.0967
▁Christ	-13.0967
▁civil	-13.0967
▁parachuti	-13.0967
isitors	-13.0967
scribe	-13.0967
iolinist	-13.0967
ehicle	-13.0967
fensive	-13.0967
eteran	-13.0967
▁handicap	-13.0967
rapper	-13.0967
▁technic	-13.0967
▁Butcher	-13.0967
▁Odeon	-13.0967
▁protrud	-13.0967
▁retreiv	-13.0967
▁suggest	-13.0967
▁surviv	-13.0967
Bienvenu	-13.0967
amurai	-13.0967
embark	-13.0967
hihuahua	-13.0967
ohemian	-13.0967
potties	-13.0967
recogni	-13.0967
▁Arizona	-13.0967
▁Atlanta	-13.0967
▁Baltimore	-13.0967
▁Barcelona	-13.0967
▁Bronco	-13.0967
▁Department	-13.0967
▁Donald	-13.0967
▁Express	-13.0967
▁Gaza	-13.0967
▁Goalie	-13.0967
▁Golf	-13.0967
▁Grandfather	-13.0967
▁Hebrew	-13.0967
▁Illinois	-13.0967
▁Interior	-13.0967
▁Liverpool	-13.0967
▁Oregon	-13.0967
▁Papa	-13.0967
▁Pepper	-13.0967
▁Pepsi	-13.0967
▁Phoenix	-13.0967
▁Planet	-13.0967
▁President	-13.0967
▁Sailor	-13.0967
▁Samsung	-13.0967
▁Stitch	-13.0967
▁Surround	-13.0967
▁THE	-13.0967
▁Twenty	-13.0967
▁Welder	-13.0967
▁Wrestler	-13.0967
▁adventurous	-13.0967
▁appreciat	-13.0967
▁asparagus	-13.0967
▁butterflies	-13.0967
▁casserole	-13.0967
▁chestnut	-13.0967
▁climate	-13.0967
▁communicate	-13.0967
▁congratulat	-13.0967
▁contortionist	-13.0967
▁corndogs	-13.0967
▁cosmetics	-13.0967
▁crocs	-13.0967
▁crucifix	-13.0967
▁curry	-13.0967
▁custody	-13.0967
▁decrepit	-13.0967
▁depot	-13.0967
▁destroy	-13.0967
▁embl	-13.0967
▁engulf	-13.0967
▁entangle	-13.0967
▁expect	-13.0967
▁eyelashes	-13.0967
▁financial	-13.0967
▁freckled	-13.0967
▁gesticulates	-13.0967
▁graveyard	-13.0967
▁groin	-13.0967
▁harpsichord	-13.0967
▁headwrap	-13.0967
▁huddling	-13.0967
▁icicle	-13.0967
▁inflating	-13.0967
▁inquisitive	-13.0967
▁introduc	-13.0967
▁knob	-13.0967
▁lecturing	-13.0967
▁majestic	-13.0967
▁maracas	-13.0967
▁masonry	-13.0967
▁moderate	-13.0967
▁opinion	-13.0967
▁oppose	-13.0967
▁paraphernalia	-13.0967
▁pillowcase	-13.0967
▁pork	-13.0967
▁portfolio	-13.0967
▁prescription	-13.0967
▁president	-13.0967
▁provocative	-13.0967
▁relationship	-13.0967
▁remember	-13.0967
▁request	-13.0967
▁residence	-13.0967
▁saber	-13.0967
▁scythe	-13.0967
▁seamstress	-13.0967
▁seashell	-13.0967
▁secret	-13.0967
▁seductive	-13.0967
▁shanty	-13.0967
▁showgirl	-13.0967
▁sleek	-13.0967
▁snuggle	-13.0967
▁spaniel	-13.0967
▁squid	-13.0967
▁stereo	-13.0967
▁strait	-13.0967
▁stubble	-13.0967
▁stucco	-13.0967
▁superior	-13.0967
▁swarm	-13.0967
▁tranquil	-13.0967
▁transformer	-13.0967
▁uncomfortabl	-13.0967
▁urinal	-13.0967
▁wrench	-13.0967
▁yarmulke	-13.0967
mputee	-13.0967
▁Actors	-13.0967
▁Angels	-13.0967
▁Derby	-13.0967
▁Kenya	-13.0967
▁Mustang	-13.0967
▁Priest	-13.0967
▁Shake	-13.0967
▁Winter	-13.0967
▁bistro	-13.0967
▁churn	-13.0967
▁funnel	-13.0967
▁grove	-13.0967
▁hawaii	-13.0967
▁loaves	-13.0967
▁pausing	-13.0967
▁peasant	-13.0967
▁promenade	-13.0967
▁refuse	-13.0967
▁sophisticated	-13.0967
▁wolf	-13.0967
▁Cream	-13.0967
▁Merry	-13.0967
▁Rabbi	-13.0967
▁Russel	-13.0967
▁Third	-13.0967
▁bonding	-13.0967
▁claim	-13.0967
▁goodbye	-13.0967
▁tatoo	-13.0967
▁voic	-13.0967
▁vows	-13.0967
▁Barbie	-13.0967
▁successfully	-13.0967
▁zig	-13.0967
▁Smoke	-13.0967
▁murder	-13.0967
fiving	-13.0968
tual	-13.0968
▁heritage	-13.0968
▁recycl	-13.0968
▁skyward	-13.0968
krain	-13.0968
sentence	-13.0968
▁breaststroke	-13.0968
▁wiener	-13.0968
proxim	-13.0968
▁Dame	-13.0968
▁headbutt	-13.0968
▁north	-13.0968
▁reef	-13.0968
▁Harley	-13.0968
▁Scen	-13.0968
▁dealership	-13.0968
▁wristwatch	-13.0968
▁contemplative	-13.0968
▁parasurf	-13.0968
▁atrium	-13.0968
▁Dodge	-13.0968
▁Odd	-13.0968
▁furnish	-13.0968
▁oxford	-13.0968
▁whizz	-13.0968
▁Tradition	-13.0968
▁Drummer	-13.0968
▁Airline	-13.0968
nderground	-13.0968
▁fins	-13.0968
▁degree	-13.0968
▁everybody	-13.0968
▁conifer	-13.0968
Barney	-13.0968
issan	-13.0968
orah	-13.0968
ghett	-13.0968
▁crook	-13.0968
▁jelly	-13.0968
▁Statu	-13.0968
▁ivy	-13.0968
bodie	-13.0968
▁Western	-13.0968
▁urn	-13.0968
▁furiously	-13.0968
▁sweatband	-13.0968
▁elevation	-13.0968
▁plot	-13.0968
▁clippers	-13.0968
▁gauges	-13.0968
▁dalmatian	-13.0968
▁lava	-13.0968
▁slick	-13.0968
▁viking	-13.0968
▁masterpiece	-13.0968
▁brook	-13.0968
▁bobb	-13.0968
▁thong	-13.0968
▁futon	-13.0968
▁withdraw	-13.0968
▁history	-13.0968
uitton	-13.0968
▁bedspread	-13.0968
▁flapping	-13.0968
▁pollut	-13.0968
▁wrought	-13.0968
▁Diner	-13.0968
▁stylist	-13.0968
▁Action	-13.0968
ompetitive	-13.0968
▁aviator	-13.0968
▁fern	-13.0968
efore	-13.0968
▁jesus	-13.0969
▁cannonball	-13.0969
▁actress	-13.0969
▁leak	-13.0969
▁measurement	-13.0969
▁cough	-13.0969
▁Year	-13.0969
▁expansive	-13.0969
▁overtake	-13.0969
▁lump	-13.0969
▁penalt	-13.0969
▁sax	-13.0969
gauge	-13.0969
▁donate	-13.0969
▁mission	-13.0969
▁Hood	-13.097
▁hump	-13.097
▁whack	-13.097
▁soloist	-13.097
▁bask	-13.097
▁trike	-13.097
▁captiv	-13.097
▁mono	-13.097
▁promotion	-13.097
HL	-13.097
▁Chase	-13.097
▁edit	-13.0971
▁Keep	-13.0971
▁afar	-13.0971
▁insert	-13.0972
▁invit	-13.0973
acrosse	-13.0973
ritish	-13.0973
▁Husk	-13.0976
▁linger	-13.0976
▁contin	-13.0977
▁Cano	-13.0977
▁eject	-13.0978
andom	-13.098
AND	-13.0982
▁wedg	-13.0982
figur	-13.0984
ternal	-13.0988
▁Levi	-13.0988
▁encircl	-13.1004
▁Rica	-13.1024
▁urg	-13.1026
▁code	-13.104
▁Hik	-13.1047
▁Athlete	-13.1073
endar	-13.113
lice	-13.1168
rise	-13.1336
TH	-13.1463
NY	-13.1754
watch	-13.1852
▁Politic	-13.1863
▁cram	-13.2178
ncle	-13.2279
fron	-13.2314
olitician	-13.2425
crobatic	-13.2616
▁emit	-13.2644
mmel	-13.2702
▁circl	-13.274
apping	-13.2779
▁rescu	-13.2815
iously	-13.2897
tacks	-13.2981
▁patti	-13.3079
▁Rob	-13.3128
laps	-13.3183
▁Cab	-13.3349
▁melon	-13.3358
▁utensil	-13.3358
▁dread	-13.336
▁Starbuck	-13.3361
▁billiard	-13.3361
▁Pedestrian	-13.3363
▁headphone	-13.3364
▁Photograph	-13.3392
▁applaud	-13.3395
▁whisper	-13.3395
▁futur	-13.3401
step	-13.3418
vaulting	-13.3418
Work	-13.3418
q	-13.3418
cultural	-13.3418
ruins	-13.3418
historic	-13.3418
built	-13.3419
world	-13.3419
patch	-13.3419
blowing	-13.3419
short	-13.3419
blond	-13.3419
through	-13.3419
women	-13.3419
close	-13.3419
wrappe	-13.342
▁cylind	-13.3427
force	-13.3429
▁orang	-13.3429
▁specta	-13.3431
▁glob	-13.3431
▁Office	-13.3434
▁suspend	-13.3443
▁concern	-13.3443
▁archaeologi	-13.3447
otica	-13.3451
Peace	-13.3451
culi	-13.3451
▁demoli	-13.3456
▁perfo	-13.3457
ynchronize	-13.3462
ogether	-13.3462
▁passionate	-13.3463
owntown	-13.3464
▁crayo	-13.3464
▁dinn	-13.3464
▁Competi	-13.3466
▁Protest	-13.3466
▁refrigerat	-13.3466
▁porc	-13.3466
▁accordi	-13.3467
njoying	-13.3467
▁danger	-13.3467
blading	-13.3467
creaming	-13.3467
▁reenact	-13.3467
▁clippe	-13.3467
oftball	-13.3467
eligious	-13.3467
▁drip	-13.3467
▁Euro	-13.3467
▁ecstatic	-13.3467
elicopter	-13.3467
rmos	-13.3467
▁brunet	-13.3467
▁suppl	-13.3467
cumbe	-13.3467
▁grandpa	-13.3467
▁Crafts	-13.3467
▁daff	-13.3467
HELL	-13.3467
▁celebrit	-13.3467
▁faith	-13.3467
▁quantit	-13.3467
HSBC	-13.3467
Maritim	-13.3467
aguar	-13.3467
araoke	-13.3467
asmine	-13.3467
descript	-13.3467
euroscience	-13.3467
oulevard	-13.3467
sault	-13.3467
▁AstroTurf	-13.3467
▁Audience	-13.3467
▁Bubble	-13.3467
▁Cadillac	-13.3467
▁Carmel	-13.3467
▁Cheese	-13.3467
▁Church	-13.3467
▁Corona	-13.3467
▁Country	-13.3467
▁Crouch	-13.3467
▁Demonstrator	-13.3467
▁Dolphin	-13.3467
▁Einstein	-13.3467
▁Fashion	-13.3467
▁Front	-13.3467
▁Goofy	-13.3467
▁Grocer	-13.3467
▁Helmeted	-13.3467
▁Hopper	-13.3467
▁Kawasaki	-13.3467
▁Kingdom	-13.3467
▁Lounge	-13.3467
▁Madrid	-13.3467
▁Magazine	-13.3467
▁Major	-13.3467
▁Maker	-13.3467
▁McCain	-13.3467
▁Nesquik	-13.3467
▁Orchestra	-13.3467
▁Orphans	-13.3467
▁Packers	-13.3467
▁Pakistani	-13.3467
▁Parkinson	-13.3467
▁Reporter	-13.3467
▁Sallie	-13.3467
▁Schoolgirl	-13.3467
▁Seahawks	-13.3467
▁Shack	-13.3467
▁Shadow	-13.3467
▁Springsteen	-13.3467
▁Warrior	-13.3467
▁Watch	-13.3467
▁abdomen	-13.3467
▁accomplish	-13.3467
▁affixed	-13.3467
▁alcove	-13.3467
▁associate	-13.3467
▁barrette	-13.3467
▁bicep	-13.3467
▁bunnies	-13.3467
▁burka	-13.3467
▁buttocks	-13.3467
▁cacti	-13.3467
▁cautious	-13.3467
▁centipede	-13.3467
▁charades	-13.3467
▁clamp	-13.3467
▁cleaver	-13.3467
▁clergy	-13.3467
▁clump	-13.3467
▁collision	-13.3467
▁companies	-13.3467
▁concoct	-13.3467
▁concourse	-13.3467
▁coordinat	-13.3467
▁cottage	-13.3467
▁crevasse	-13.3467
▁crossword	-13.3467
▁culvert	-13.3467
▁cymbal	-13.3467
▁deflect	-13.3467
▁deploy	-13.3467
▁depressed	-13.3467
▁depth	-13.3467
▁detain	-13.3467
▁determination	-13.3467
▁development	-13.3467
▁diagnos	-13.3467
▁disguise	-13.3467
▁disgust	-13.3467
▁dreary	-13.3467
▁dwelling	-13.3467
▁elliptical	-13.3467
▁email	-13.3467
▁enthusiasm	-13.3467
▁fingertips	-13.3467
▁freckles	-13.3467
▁galoshes	-13.3467
▁generation	-13.3467
